the 528065
a 267427
and 259581
of 230413
to 214712
is 171895
in 152040
i 127398
it 125445
this 119689
that 108826
as 77778
was 76153
with 69774
for 69660
movie 67220
but 66405
on 60228
film 59568
not 48118
you 47784
are 47336
his 45574
have 44217
be 43481
one 42052
he 42044
its 41458
an 40118
at 38953
all 36948
by 36231
they 33468
who 32497
from 32304
so 32260
or 31875
like 31837
just 27982
her 27536
out 27207
about 27024
if 26591
has 26198
some 25256
there 24613
what 24462
good 23298
more 22419
very 22245
when 22231
my 20755
up 20237
even 20193
no 19801
time 19762
would 19364
she 19330
which 18721
only 18512
really 18315
their 18221
me 18172
see 18065
story 17780
were 17649
can 17629
had 17487
re@@ 17303
well 15850
we 15801
than 15597
do 15564
much 15204
get 14865
been 14544
will 14484
bad 14316
great 14274
into 14263
also 14250
because 14238
other 14234
un@@ 14177
people 14137
how 14064
most 13982
s@@ 13795
dont 13647
first 13634
him 13458
way 12913
in@@ 12813
made 12761
then 12741
man 12658
movies 12544
make 12316
them 12259
any 12249
films 12172
could 12123
too 11932
after 11884
e@@ 11671
characters 11661
t@@ 11547
d@@ 11462
think 11428
ed 11400
k@@ 11299
watch 10968
many 10707
seen 10589
ing 10567
being 10505
two 10487
acting 10391
never 10366
character 10322
did 10241
love 10145
plot 10033
where 10012
p@@ 9983
best 9942
end 9939
ever 9917
little 9892
know 9807
show 9800
y@@ 9709
life 9572
b@@ 9530
es 9275
a@@ 9272
s 9272
does 9237
over 9095
your 9080
off 9069
o 9057
er 8937
g@@ 8915
better 8878
still 8686
these 8588
scene 8572
say 8571
go 8525
while 8420
an@@ 8309
e 8302
en@@ 8290
o@@ 8203
why 8174
scenes 8158
c@@ 8136
here 8095
such 8012
something 7964
i@@ 7896
us 7857
im 7842
back 7814
al@@ 7747
de@@ 7726
thing 7630
should 7612
y 7595
through 7588
t 7579
those 7496
real 7363
sh@@ 7334
ers 7244
watching 7232
actors 7226
u@@ 7212
now 7173
m@@ 7100
ts 7085
doesnt 7044
st@@ 7036
didnt 7016
f@@ 7010
it@@ 6957
years 6920
though 6892
old 6815
h@@ 6783
funny 6777
actually 6775
ation 6772
n@@ 6770
work 6749
another 6747
able 6709
makes 6698
look 6692
before 6687
er@@ 6664
going 6603
nothing 6555
ted 6532
find 6520
lot 6468
ro@@ 6463
on@@ 6452
same 6441
new 6435
every 6421
di@@ 6330
al 6310
few 6291
le@@ 6278
part 6252
li@@ 6222
v@@ 6203
se@@ 6174
el@@ 6151
down 6136
w@@ 6111
director 6078
thats 6048
cant 6023
ar@@ 5976
m 5970
again 5927
things 5885
cast 5860
ch@@ 5859
am 5843
d 5839
ri@@ 5837
quite 5832
l@@ 5787
co@@ 5770
want 5764
pretty 5759
p 5694
world 5676
son 5675
ate 5658
seems 5652
take 5638
around 5600
young 5562
got 5561
ive 5555
be@@ 5554
ra@@ 5516
fact 5496
con@@ 5469
horror 5450
both 5436
however 5391
big 5384
gets 5374
thought 5364
give 5363
ly 5359
enough 5338
g 5308
between 5284
right 5264
r@@ 5252
may 5243
saw 5227
own 5226
long 5226
without 5202
bit 5192
action 5180
point 5163
or@@ 5145
original 5077
always 5042
im@@ 5036
our 5020
k 5018
ma@@ 5006
comedy 5006
almost 4991
come 4987
music 4985
ated 4982
isnt 4978
must 4973
done 4948
theres 4918
2 4912
series 4889
guy 4889
ab@@ 4886
hes 4883
sure 4882
times 4871
interesting 4868
less 4852
po@@ 4835
whole 4811
st 4769
role 4760
least 4748
z@@ 4720
tv 4711
at@@ 4705
l 4699
last 4675
ds 4659
mar@@ 4637
script 4629
far 4626
feel 4620
es@@ 4613
might 4604
minutes 4593
lo@@ 4580
th@@ 4574
probably 4544
since 4541
kind 4534
te@@ 4528
la@@ 4525
anything 4524
am@@ 4499
family 4477
ys 4470
day 4455
away 4451
ending 4445
pe@@ 4374
ting 4318
performance 4306
sp@@ 4303
yet 4277
red 4260
rather 4248
ing@@ 4244
pre@@ 4220
worst 4208
ti@@ 4191
bo@@ 4191
played 4187
ic@@ 4187
ca@@ 4174
girl 4172
making 4164
anyone 4151
found 4133
each 4119
fun 4119
set 4118
woman 4114
ac@@ 4053
looking 4039
ha@@ 3995
hard 3994
having 3991
although 3981
worth 3978
believe 3969
j@@ 3965
ru@@ 3941
screen 3937
si@@ 3924
to@@ 3915
trying 3910
course 3907
ating 3899
b 3891
especially 3888
ex@@ 3885
ta@@ 3882
ous 3879
is@@ 3865
comes 3859
le 3853
shows 3852
me@@ 3849
bu@@ 3844
place 3840
put 3828
mo@@ 3821
goes 3803
book 3797
de 3793
everything 3788
maybe 3786
id 3785
play 3775
different 3747
10 3741
dvd 3725
do@@ 3707
ed@@ 3675
ad@@ 3675
th 3670
as@@ 3669
ge@@ 3667
ne@@ 3660
main 3659
ans 3654
looks 3646
over@@ 3637
3 3631
american 3628
per@@ 3623
du@@ 3609
wasnt 3600
sense 3597
watched 3593
n 3579
men 3567
reason 3561
once 3555
three 3539
line 3531
plays 3525
car@@ 3524
actor 3506
someone 3505
su@@ 3500
true 3487
effects 3481
job 3478
money 3446
war 3440
together 3437
takes 3433
house 3430
night 3423
said 3413
c 3408
during 3407
ine 3378
later 3375
seem 3372
instead 3356
ant 3351
sc@@ 3342
everyone 3338
sa@@ 3337
john 3334
beautiful 3330
ity 3325
1 3324
version 3320
used 3316
seeing 3315
special 3286
shot 3283
se 3280
king 3273
der 3272
ks 3261
shes 3260
no@@ 3257
himself 3251
audience 3239
left 3236
ding 3230
let 3211
ag@@ 3204
en 3196
friends 3194
excellent 3194
ded 3189
wa@@ 3188
idea 3184
star 3169
har@@ 3163
black 3156
use 3154
simply 3122
rest 3117
wife 3114
gu@@ 3104
ty 3104
pro@@ 3103
read 3099
poor 3098
youre 3075
man@@ 3058
ke 3053
try 3049
ter 3047
ons 3046
high 3044
fan 3043
x 3026
nice 3021
completely 3019
he@@ 3011
ap@@ 3011
death 3008
ol@@ 3007
along 3005
go@@ 3004
ations 3001
so@@ 2996
om@@ 2994
lu@@ 2983
year 2975
act 2975
half 2974
kids 2972
x@@ 2965
gi@@ 2964
par@@ 2963
el 2957
qu@@ 2956
else 2953
pa@@ 2952
given 2946
age 2942
mind 2935
second 2931
ch 2921
dead 2914
short 2912
ance 2909
em@@ 2906
u 2897
help 2890
mon@@ 2877
boring 2871
for@@ 2857
op@@ 2856
5 2828
home 2814
need 2805
bar@@ 2802
il@@ 2801
production 2799
enjoy 2799
until 2766
mi@@ 2765
ill 2758
ps 2756
bi@@ 2755
truly 2752
couple 2752
under@@ 2750
classic 2740
either 2738
wrong 2734
performances 2727
fi@@ 2727
side 2724
ic 2721
recommend 2719
cu@@ 2716
hollywood 2714
father 2714
school 2706
dy 2696
res 2695
ates 2695
getting 2695
stupid 2692
came 2684
next 2683
les 2680
ings 2679
start 2671
women 2668
tell 2665
vi@@ 2664
ones 2662
full 2657
ent 2653
head 2648
face 2645
ness 2635
war@@ 2635
ment 2633
budget 2627
h 2624
min@@ 2624
remember 2621
w 2620
jo@@ 2620
au@@ 2619
low 2617
ling 2612
human 2608
understand 2608
camera 2601
perhaps 2598
keep 2591
case 2590
awful 2588
sex 2579
out@@ 2574
playing 2573
terrible 2564
moments 2551
lines 2549
boy 2547
ies 2544
wonderful 2543
ni@@ 2541
others 2538
ver@@ 2537
mother 2532
als 2530
fe@@ 2530
tr@@ 2523
ors 2523
yes 2521
mor@@ 2519
ir@@ 2518
ho@@ 2514
4 2513
ber@@ 2511
often 2508
definitely 2505
name 2504
f 2504
mean 2504
perfect 2502
ur@@ 2493
stars 2492
written 2490
top 2486
video 2476
itself 2474
person 2468
doing 2466
style 2465
dis@@ 2462
piece 2455
liked 2453
gives 2445
ful 2445
the@@ 2440
small 2438
guys 2436
wh@@ 2430
live 2420
absolutely 2420
couldnt 2409
ses 2406
wi@@ 2403
sort 2399
went 2399
sub@@ 2396
finally 2394
tion 2386
dialogue 2383
early 2383
episode 2371
felt 2364
ou@@ 2357
certainly 2357
tri@@ 2343
ent@@ 2339
lost 2336
gra@@ 2335
ran@@ 2330
ter@@ 2323
ins 2318
loved 2313
supposed 2313
te 2311
ba@@ 2307
become 2306
overall 2304
entertaining 2287
title 2286
inter@@ 2286
based 2285
ar 2284
all@@ 2264
hope 2258
entire 2256
com@@ 2251
ke@@ 2247
led 2245
worse 2244
several 2242
che@@ 2242
ens 2232
ker 2229
ingly 2227
friend 2227
picture 2223
oh 2214
against 2210
totally 2207
waste 2196
youll 2194
laugh 2193
wanted 2184
problem 2181
pi@@ 2181
despite 2180
dark 2180
art 2180
drama 2174
white 2172
beginning 2172
tw@@ 2171
ends 2169
sound 2161
fans 2161
days 2157
ss 2156
sts 2154
cinema 2154
hu@@ 2150
final 2150
evil 2143
lead 2142
direction 2141
gh@@ 2140
mr 2139
town 2130
na@@ 2129
seemed 2128
children 2121
bl@@ 2117
girls 2115
game 2114
ary 2112
r 2112
film@@ 2112
end@@ 2108
example 2106
turn 2101
under 2100
care 2099
sing 2098
becomes 2095
wont 2094
already 2094
humor 2093
ev@@ 2091
ep@@ 2089
lives 2088
called 2085
works 2078
z 2074
ical 2073
gar@@ 2073
7 2071
guess 2062
ck@@ 2058
throughout 2052
quality 2044
well@@ 2039
writing 2036
wants 2031
fine 2022
mis@@ 2019
unfortunately 2019
sed 2013
ve@@ 2011
theyre 2003
ously 2002
8 1996
2@@ 1990
da@@ 1988
3@@ 1985
mer@@ 1984
cor@@ 1980
history 1976
ms 1974
gave 1967
her@@ 1965
kill 1960
tries 1959
killer 1953
turns 1952
ice 1949
michael 1947
ton 1947
amazing 1947
late 1942
enjoyed 1940
horrible 1937
flick 1936
room 1934
parts 1932
ul@@ 1923
favorite 1916
past 1911
mu@@ 1910
ck 1908
est@@ 1907
hi@@ 1906
directed 1905
behind 1900
run 1897
coming 1894
heart 1894
car 1892
tu@@ 1892
killed 1891
eyes 1879
gr@@ 1874
cr@@ 1871
city 1870
brilliant 1865
matter 1860
sometimes 1858
pu@@ 1857
ze 1854
der@@ 1848
obviously 1848
hour 1848
genre 1846
expect 1846
decent 1843
col@@ 1842
fa@@ 1840
viewer 1838
fight 1837
type 1833
starts 1832
sen@@ 1831
soon 1831
and@@ 1830
sk@@ 1825
stuff 1812
themselves 1811
says 1810
child 1803
heard 1802
actress 1794
myself 1793
die 1791
ley 1789
group 1788
thinking 1787
os 1783
fully 1779
feeling 1779
stop 1779
af@@ 1779
ably 1777
sch@@ 1774
ren@@ 1774
light 1774
off@@ 1773
gre@@ 1770
sh 1769
ss@@ 1766
up@@ 1765
lack 1763
fu@@ 1761
ok 1759
strong 1757
ler 1756
cut 1754
known 1754
ves 1753
told 1752
hand 1750
took 1747
9 1746
except 1739
highly 1738
happens 1736
rec@@ 1731
ste@@ 1726
kid 1724
hell 1723
ge 1721
stories 1711
ative 1706
extremely 1705
ble 1702
leave 1699
view 1697
hero 1697
ten 1697
experience 1694
sha@@ 1694
ali@@ 1692
movie@@ 1692
cannot 1690
ently 1689
6 1687
ce@@ 1686
can@@ 1686
lin@@ 1684
police 1682
ci@@ 1680
close 1679
lets 1678
ally 1678
sion 1677
ve 1675
particularly 1672
complete 1671
moment 1669
blood 1668
shing 1665
wouldnt 1662
land 1659
living 1659
god 1657
looked 1654
daughter 1653
ga@@ 1653
including 1653
score 1650
fin@@ 1646
dly 1645
save 1642
involved 1640
bel@@ 1640
ned 1636
wonder 1635
ard 1635
taken 1633
violence 1632
bur@@ 1632
vo@@ 1629
etc 1628
happen 1627
anyway 1626
serious 1624
els 1623
attempt 1620
cl@@ 1620
chance 1618
james 1616
ago 1615
order 1614
ell@@ 1614
ka@@ 1612
change 1611
simple 1610
across 1605
ce 1598
alone 1598
obvious 1598
exactly 1596
sel@@ 1595
usually 1595
ws 1595
murder 1594
david 1592
shown 1591
sur@@ 1590
gore 1588
roles 1587
opening 1587
robert 1585
cool 1585
ked 1583
cra@@ 1583
ly@@ 1580
ges 1578
att@@ 1577
please 1577
ny 1576
happened 1575
v 1573
pri@@ 1573
jokes 1570
hilarious 1570
slow 1567
ju@@ 1566
hours 1564
reality 1564
non@@ 1562
interest 1560
released 1560
english 1559
ite 1556
song 1555
ob@@ 1551
shots 1548
des 1548
1@@ 1546
words 1543
happy 1542
whose 1542
saying 1541
tic 1539
tra@@ 1532
ph@@ 1531
taking 1531
voice 1531
ster 1528
il 1526
fil@@ 1525
running 1525
body 1523
important 1521
et 1520
ie 1520
seriously 1520
form 1520
mc@@ 1518
one@@ 1516
dan@@ 1516
wish 1514
ov@@ 1514
number 1514
ats 1514
huge 1513
pr@@ 1511
started 1510
hit 1509
ches 1508
today 1508
sad 1504
mark 1502
possible 1501
talent 1499
da 1498
et@@ 1493
none 1493
ties 1492
cinematography 1492
power 1491
7@@ 1488
5@@ 1487
annoying 1486
sta@@ 1485
tions 1485
relationship 1483
brother 1481
fre@@ 1480
crap 1480
ess 1480
ick 1478
shed 1476
usual 1476
call 1474
beyond 1473
major 1473
yourself 1471
due 1470
somewhat 1469
arent 1468
star@@ 1464
pl@@ 1461
cru@@ 1461
mostly 1460
ry 1455
turned 1454
ics 1454
predictable 1452
ridiculous 1452
ator 1451
gs 1450
four 1449
career 1448
knew 1447
mat@@ 1446
den@@ 1446
scary 1443
female 1443
word 1441
miss 1441
ner 1440
apparently 1438
sted 1437
sets 1434
ls 1433
ff 1432
knows 1431
talking 1431
silly 1430
jack 1429
husband 1429
ric@@ 1428
zed 1428
ber 1425
pp@@ 1424
cre@@ 1422
strange 1422
basically 1421
directors 1421
char@@ 1420
4@@ 1418
novel 1418
level 1418
rating 1417
ways 1416
documentary 1416
modern 1416
whats 1415
bs 1414
super@@ 1413
opinion 1410
sequence 1406
wal@@ 1404
upon 1401
fall 1400
giving 1399
musical 1398
we@@ 1397
clearly 1391
cat@@ 1391
bor@@ 1390
finds 1389
british 1382
tly 1381
ship 1381
est 1380
acted 1380
ving 1379
attention 1378
class 1377
ns 1376
television 1375
moving 1374
dar@@ 1373
local 1372
disappointed 1369
ish 1368
ad 1366
la 1364
ser@@ 1363
fl@@ 1362
ia 1358
french 1358
0@@ 1357
ff@@ 1356
episodes 1356
rel@@ 1355
certain 1355
cheap 1354
gen@@ 1352
whether 1352
falls 1350
single 1350
cla@@ 1349
inv@@ 1347
problems 1347
ill@@ 1346
country 1345
lots 1345
tells 1345
sto@@ 1344
writer 1341
talk 1338
nu@@ 1336
ism 1335
pur@@ 1335
clear 1332
ban@@ 1331
thriller 1328
five 1326
tru@@ 1325
ability 1324
dra@@ 1323
events 1322
songs 1317
tur@@ 1316
parents 1315
tre@@ 1315
ile 1315
sexual 1314
add 1314
ky 1313
supporting 1312
cro@@ 1310
easily 1310
ang@@ 1309
havent 1307
ying 1306
sla@@ 1305
wing 1304
sive 1303
appears 1302
ger 1301
ended 1301
deal 1301
clo@@ 1298
re 1298
easy 1298
str@@ 1297
ori@@ 1295
enjoyable 1295
needs 1294
similar 1293
dance 1293
bring 1292
review 1292
romantic 1289
entertainment 1289
near 1289
above 1287
ically 1286
sit 1286
gone 1285
wor@@ 1284
working 1284
ence 1281
boys 1280
oo@@ 1280
earth 1279
actual 1277
filmed 1277
surprised 1276
george 1275
mention 1275
team 1274
dialog 1273
pen@@ 1270
tried 1269
named 1267
viewers 1266
soundtrack 1265
future 1264
ak@@ 1264
message 1262
among 1261
move 1261
hate 1260
br@@ 1256
ines 1255
space 1254
199@@ 1253
int@@ 1253
dog 1251
theme 1250
within 1250
kes 1249
del@@ 1249
tom 1248
sorry 1245
ined 1244
dd@@ 1244
comic 1244
showing 1243
theater 1242
198@@ 1242
using 1240
lies 1240
my@@ 1240
ces 1240
80s 1239
bunch 1238
rent 1238
ey 1237
tale 1236
feels 1235
je@@ 1234
points 1233
bed 1231
sthe 1230
middle 1229
storyline 1229
realistic 1229
ster@@ 1228
dull 1227
sin@@ 1226
stay 1226
sons 1225
bal@@ 1223
check 1222
ation@@ 1221
comments 1220
fire 1220
sm@@ 1220
197@@ 1220
kept 1219
typical 1218
mans 1218
ten@@ 1216
buy 1216
squ@@ 1213
minute 1213
far@@ 1210
rock 1210
ram@@ 1209
fast 1207
back@@ 1207
ari@@ 1206
greatest 1205
ents 1204
ear@@ 1201
doubt 1199
means 1199
bro@@ 1199
suspense 1197
stage 1197
nearly 1195
viewing 1194
nor 1192
ford 1192
monster 1191
lan@@ 1190
ty@@ 1189
um 1188
lady 1186
brought 1185
per 1185
effort 1184
subject 1182
sequel 1182
writers 1180
richard 1180
ming 1179
dr 1178
sho@@ 1178
famous 1177
peter 1177
release 1176
editing 1175
elements 1175
somehow 1174
ely 1173
ping 1171
ney 1171
ring 1169
feature 1169
ities 1167
avoid 1165
van 1165
air 1164
straight 1162
ters 1161
leads 1160
fantastic 1159
comp@@ 1157
imagine 1156
win@@ 1155
dic@@ 1154
reviews 1153
dr@@ 1153
sister 1151
zing 1150
self@@ 1149
 1149
youve 1148
begins 1144
stri@@ 1143
herself 1142
id@@ 1138
material 1138
forget 1137
eventually 1137
kin@@ 1137
learn 1136
ths 1136
paul 1135
front 1134
forward 1133
stand 1132
wait 1131
ped 1130
crime 1130
ised 1128
tion@@ 1127
boo@@ 1126
but@@ 1125
expected 1124
eli@@ 1124
possibly 1124
hear 1123
general 1123
eye 1122
ore 1121
okay 1120
premise 1119
killing 1117
figure 1116
way@@ 1115
bul@@ 1115
forced 1115
surprise 1114
flo@@ 1114
believable 1113
decided 1111
particular 1110
water 1109
ged 1109
mystery 1108
period 1107
20 1106
ton@@ 1104
average 1103
whos 1102
dies 1101
ati@@ 1101
york 1100
yed 1099
write 1096
deep 1094
wil@@ 1093
whatever 1093
weak 1092
ble@@ 1091
zz@@ 1088
leading 1088
difficult 1085
cap@@ 1084
situation 1084
interested 1084
animation 1082
indeed 1082
needed 1080
stic 1079
ction 1078
crew 1078
av@@ 1077
sti@@ 1077
fun@@ 1075
ct 1073
dri@@ 1073
bra@@ 1072
tor@@ 1071
poorly 1070
memorable 1068
emotional 1067
shame 1067
win 1067
ist 1066
por@@ 1066
lame 1065
box 1065
tro@@ 1064
atmosphere 1064
western 1064
key 1064
8@@ 1064
street 1062
truth 1062
good@@ 1061
cop@@ 1061
sequences 1060
leaves 1060
cover 1059
follow 1058
personal 1058
lee 1058
ning 1057
ys@@ 1057
ger@@ 1056
doctor 1056
open 1054
nature 1054
sting 1054
free 1051
third 1050
stu@@ 1049
gri@@ 1048
sy 1048
footage 1047
plus 1046
show@@ 1046
gun 1045
sses 1044
ick@@ 1044
scifi 1044
gg@@ 1043
unless 1043
note 1043
9@@ 1041
oscar 1041
fer@@ 1041
credits 1039
worked 1039
mal@@ 1039
fle@@ 1038
meet 1037
0 1037
season 1037
imdb 1037
mac@@ 1037
total 1036
ne 1036
reading 1036
question 1035
fied 1035
hot 1033
trans@@ 1032
romance 1031
begin 1031
gay 1031
features 1028
tt@@ 1028
pping 1027
dev@@ 1027
otherwise 1027
hold 1026
became 1026
whom 1023
hands 1023
male 1022
cheesy 1021
don@@ 1021
tt 1020
ut@@ 1019
sions 1018
japanese 1018
lat@@ 1017
ach@@ 1016
ken 1016
setting 1015
joe 1015
ching 1014
island 1013
meets 1013
previous 1012
ma 1012
ta 1012
tal@@ 1011
beauty 1011
sounds 1011
weird 1010
ments 1010
filmmakers 1007
rich 1006
nor@@ 1004
hol@@ 1004
died 1003
era 1003
hom@@ 1002
west 1000
pol@@ 999
towards 999
ja@@ 998
society 998
perfectly 996
ici@@ 996
hun@@ 995
inside 995
san@@ 993
cur@@ 993
keeps 993
ire 990
bre@@ 989
fit 989
cop 989
quickly 989
tic@@ 988
incredibly 988
superb 988
copy 988
appear 987
pal@@ 986
ited 986
unique 986
sun@@ 986
crazy 985
bill 985
comment 985
screenplay 984
explo@@ 984
ane 983
result 983
pe 982
brings 981
stre@@ 980
ale 980
various 980
dramatic 980
business 979
ack 978
ful@@ 977
realize 976
battle 976
effect 975
ball 975
fairly 974
older 973
field 973
ages 972
badly 972
scre@@ 970
masterpiece 969
shi@@ 968
thy 968
eng@@ 968
laughs 967
low@@ 967
baby 966
pped 965
high@@ 965
pan@@ 964
gl@@ 963
ner@@ 963
earlier 962
test 962
any@@ 961
comm@@ 960
son@@ 959
ise 958
directing 958
creepy 957
aw@@ 957
ask 957
ki@@ 956
portrayed 956
top@@ 955
america 953
eless 953
apart 952
girlfriend 951
dumb 950
6@@ 950
background 949
cho@@ 949
uses 948
joke 948
development 947
acts 947
powerful 947
break 947
plenty 946
rom@@ 945
hoo@@ 945
fo@@ 944
filled 943
admit 942
pay 941
spent 939
following 938
mel@@ 938
deserves 938
telling 936
han@@ 936
outside 936
70s 935
mess 934
manages 934
our@@ 934
meant 932
fighting 931
row 931
ately 931
present 930
tan@@ 930
chan@@ 930
wasted 928
ray 928
inc@@ 926
remake 926
bad@@ 923
talented 922
expecting 921
woods 920
cul@@ 920
cute 920
familiar 920
list 919
fran@@ 918
william 917
secret 916
amount 916
ved 915
missing 915
wed 915
success 914
caught 914
ideas 914
ther@@ 914
sal@@ 913
casting 911
plain 911
dre@@ 910
waiting 910
fla@@ 909
ili@@ 909
return 908
political 908
public 908
missed 908
ily 907
create 906
ow@@ 906
store 906
large 905
time@@ 904
sy@@ 904
ide@@ 904
produced 904
bri@@ 903
attempts 902
cam@@ 902
down@@ 900
hardly 900
mil@@ 896
date 895
hor@@ 895
dream 894
bon@@ 894
recently 894
science 894
reasons 891
wit@@ 890
200@@ 889
married 888
pace 886
unlike 886
force 886
disney 885
fails 883
cli@@ 883
dam@@ 883
atic 883
sion@@ 881
lam@@ 881
zombie 879
agree 879
sey 879
members 879
sweet 878
german 877
12 876
wrote 876
twist 875
ina 875
chi@@ 875
stan@@ 874
ian 873
ess@@ 873
stra@@ 872
party 872
tem@@ 871
pas@@ 870
tes 868
potential 868
clever 868
rit@@ 867
popular 867
ils 865
pure 865
chase 865
escape 865
cartoon 864
cause 863
road 863
ging 863
italian 862
match 861
tran@@ 858
mid@@ 857
company 855
ened 855
ition 854
cks 853
j 853
gh 852
odd 850
dancing 849
common 848
slightly 848
15 847
moves 846
fan@@ 846
iness 845
former 845
visual 845
sadly 845
fair 844
incredible 844
considering 844
mag@@ 843
office 843
pat@@ 843
sees 842
nudity 841
villain 841
teen 841
state 840
tive 840
laughing 840
lon@@ 838
ery 838
successful 837
brothers 837
hand@@ 836
eg@@ 836
speak 835
entirely 835
credit 835
further 834
mary 834
cont@@ 834
bit@@ 833
fr@@ 833
mentioned 832
lim@@ 832
created 830
neither 829
30 828
century 827
ace 827
coo@@ 827
beat 826
ement 825
violent 825
she@@ 825
law 824
intelligent 824
social 822
follows 822
fantasy 821
convincing 821
si 821
bored 820
mm@@ 820
lea@@ 820
band 819
ders 819
colle@@ 819
tom@@ 819
pieces 819
fy 818
gue 817
sor@@ 816
master 815
ining 815
ther 815
exciting 815
mad 814
suddenly 813
head@@ 813
kno@@ 812
anti@@ 811
tension 811
language 811
rated 811
ous@@ 811
trouble 810
story@@ 810
fir@@ 809
new@@ 807
walk 807
tone 806
tim@@ 806
rate 806
ssi@@ 805
compared 805
tle 805
spend 804
audiences 803
meaning 803
depth 803
appreciate 802
sent 802
images 802
swe@@ 802
ft 801
train 801
cted 799
ere 799
don 799
red@@ 799
producers 798
flat 797
worthy 797
younger 797
basic 797
impressive 796
spe@@ 796
men@@ 796
decides 795
biggest 795
scott 795
presented 794
longer 793
cri@@ 792
them@@ 792
sol@@ 792
effective 791
ir 791
too@@ 791
ani@@ 790
med 790
ana 790
fear 789
ure 789
portrayal 789
value 788
cold 787
ak 787
college 787
cha@@ 786
added 785
involving 784
coun@@ 783
ben@@ 782
likes 782
disc@@ 780
bizarre 779
sick 779
bab@@ 779
bling 779
cy 778
project 777
pointless 777
sl@@ 776
culture 776
na 775
aside 775
gang 775
bru@@ 774
ity@@ 773
spirit 773
sli@@ 773
consider 773
pathetic 773
respect 772
changed 772
ben 772
barely 771
den 771
alien 770
kills 770
hair 770
ched 769
werent 768
alive 768
ye@@ 766
195@@ 766
jane 766
len@@ 766
decide 765
concept 765
ultimately 765
cat 765
choice 765
ef@@ 765
situations 764
honest 764
gener@@ 763
control 761
wn 761
dro@@ 761
recent 761
surprisingly 760
194@@ 760
focus 760
books 760
bought 758
eri@@ 758
amusing 758
recommended 758
considered 758
bas@@ 758
wan@@ 757
positive 756
kar@@ 756
dum@@ 756
bla@@ 755
values 755
charles 754
stands 754
ment@@ 753
normal 753
singing 752
christmas 752
showed 751
ell 749
master@@ 748
solid 748
196@@ 748
yeah 748
door 747
brain 747
leaving 747
adventure 747
impossible 746
trash 746
10@@ 745
exc@@ 745
tired 744
starring 744
nie 743
questions 743
somewhere 742
fac@@ 742
touch 740
honestly 739
south 739
camp 737
prison 736
ig@@ 733
cal@@ 733
humour 732
ka 732
yo@@ 731
pick 731
grade 731
chemistry 730
born 730
193@@ 730
sam@@ 729
board 729
fake 727
accent 727
runs 726
ven@@ 726
literally 725
subtle 724
sky 724
immediately 723
sitting 722
adult 722
100 722
real@@ 722
failed 721
studio 721
animated 720
garbage 719
developed 718
ple 718
ever@@ 717
disturbing 716
sn@@ 716
bing 715
revenge 715
stick 715
channel 715
sexy 714
care@@ 714
trip 714
of@@ 714
awesome 713
won 713
lover 710
oun@@ 709
jud@@ 709
loves 709
explain 708
jones 708
thanks 708
oned 706
army 706
club 705
glo@@ 705
unn@@ 705
shooting 705
park 705
sam 704
changes 704
thing@@ 704
actions 703
twists 703
glad 703
loc@@ 702
drug 702
bb@@ 702
soldiers 701
spoilers 701
jim 701
nobody 701
standard 700
gro@@ 700
remains 699
issues 697
fiction 697
him@@ 696
available 696
thinks 695
utterly 694
tough 693
ti 693
anne 693
shoot 692
purpose 692
sen 692
genius 691
hard@@ 691
mer 691
gun@@ 689
journey 689
fore@@ 689
pret@@ 689
ker@@ 689
domin@@ 688
blue 688
photography 688
pass 687
likely 687
smith 686
bits 685
kid@@ 685
od@@ 685
hop@@ 685
week 685
vampire 685
likable 684
sw@@ 684
via 684
acy 682
stro@@ 682
generally 682
ple@@ 681
cult 681
fri@@ 681
vs 680
mood 680
nowhere 679
appearance 679
roo@@ 678
natural 678
mul@@ 678
charming 678
tho@@ 677
sty 677
managed 676
wood 676
places 676
aspect 676
bran@@ 676
taste 675
spo@@ 675
fro@@ 675
frank 675
ced 675
constantly 674
walking 674
smart 674
ek 673
stal@@ 673
insi@@ 672
tit@@ 672
bother 672
ward 671
knowing 670
terms 670
lovely 670
hey 670
historical 670
dad 669
personally 669
sis 669
boy@@ 669
bottom 668
hel@@ 667
naked 667
character@@ 667
cinematic 667
sters 666
slasher 666
day@@ 665
conclusion 665
motion 665
val@@ 665
surely 664
duc@@ 664
plo@@ 664
ghost 663
scenery 663
ass 662
complex 662
contains 662
ston 662
def@@ 662
blo@@ 662
government 662
met 662
giant 662
nat@@ 661
beautifully 661
cin@@ 660
zombies 660
em 659
justice 659
steve 659
thank 659
latter 659
stin@@ 658
silent 658
um@@ 658
thi@@ 658
presence 657
soul 657
wer 656
edge 656
stor@@ 656
logical 656
lock 656
pictures 655
comedies 655
ko@@ 655
lie 655
heart@@ 655
emotions 654
flu@@ 654
track 654
catch 653
appeal 652
ele@@ 652
innocent 652
dge 652
chris 652
planet 651
dan 651
rare 651
makers 650
throw 650
tin@@ 650
magic 650
ory 649
terrific 648
ride 648
wise 648
iting 647
cc@@ 647
names 646
suppose 646
hy@@ 646
di 645
ah 645
adaptation 645
ctive 645
dying 645
puts 644
ises 644
youd 644
wild 644
onto 643
act@@ 643
dy@@ 643
minor 643
mes@@ 643
excuse 643
mental 642
outstanding 642
que 641
thus 641
thrown 641
loud 641
resi@@ 641
mic@@ 641
sil@@ 641
indian 640
race 640
makeup 640
everybody 639
besides 639
attack 639
military 638
london 637
bond 637
costumes 636
plan 636
central 635
acks 634
pot@@ 633
mun@@ 633
computer 633
self 633
unbelievable 632
building 632
ham@@ 632
touching 632
equally 631
paris 631
you@@ 630
slowly 630
50 629
tar@@ 629
ii 629
ur 629
ack@@ 629
some@@ 629
ams 629
enti@@ 628
play@@ 628
details 627
plan@@ 627
brief 627
cer@@ 627
ious 627
shar@@ 627
lived 627
hal@@ 626
intended 625
impression 625
dom 625
app@@ 624
laughable 624
boyfriend 624
ssed 623
mysterious 623
ba 623
narrative 623
iti@@ 623
ra 623
critics 623
filming 622
hoping 622
tered 622
charlie 622
refle@@ 621
lar@@ 621
lit@@ 621
kie 621
feelings 621
painful 620
imagin@@ 620
producer 620
disappointing 620
thr@@ 619
detective 619
speaking 619
ants 619
themes 618
opportunity 618
faces 617
students 617
lin 616
cy@@ 615
manner 615
aspects 614
attractive 614
mainly 613
fresh 613
wearing 613
tony 613
ners 612
gor@@ 612
pin@@ 611
grace 611
ering 611
random 611
difference 611
ligh@@ 610
position 610
moral 610
vis@@ 610
finding 610
climax 609
hospital 609
emotion 608
billy 608
sar@@ 608
dated 607
americans 607
bruce 607
opera 606
notice 606
goo@@ 606
cops 606
black@@ 606
bar 606
held 605
sing@@ 605
scar@@ 604
lers 604
cry 604
lish 604
rol@@ 604
hen@@ 604
ght@@ 604
lighting 603
hurt 602
nes 602
bles 602
forever 602
stunning 600
reli@@ 600
laughed 599
ented 599
holes 599
ha 599
finish 599
green 599
drawn 598
imp@@ 597
confusing 597
include 597
festival 597
ey@@ 597
charm 596
ground 596
harry 596
million 595
support 595
image 594
victim 594
ars 593
expectations 593
fascinating 593
foo@@ 593
student 593
by@@ 593
award 593
ered 592
ational 592
ssing 591
impressed 590
confused 590
hon@@ 590
witch 590
games 590
graphic 589
gam@@ 589
station 589
paid 589
mir@@ 588
location 588
step@@ 588
stly 588
hur@@ 587
pau@@ 587
mistake 586
oper@@ 586
color 586
bo 585
pet@@ 584
wow 584
christian 584
drugs 583
zes 583
anna 583
mission 583
photo@@ 583
sely 583
ong 583
din@@ 583
ya 582
ith 582
post@@ 581
fell 581
share 581
relationships 581
suggest 581
rac@@ 580
leg@@ 580
putting 580
falling 580
may@@ 579
dep@@ 579
ym@@ 578
hear@@ 578
sa 578
assu@@ 577
sea 577
bol@@ 577
vision 577
pho@@ 577
compelling 576
able@@ 576
lacks 576
plane 576
grand@@ 575
extreme 575
inger 575
disappointment 574
dru@@ 574
sex@@ 574
summer 573
jan@@ 573
scen@@ 573
seemingly 572
willing 572
site 572
marriage 572
ct@@ 572
christopher 572
pes 572
information 572
pic@@ 571
heavy 571
chy 571
fli@@ 571
flicks 570
dem@@ 570
intense 570
phone 570
folks 570
supposedly 570
offer 570
creative 570
pain 569
shock 569
uni@@ 568
auth@@ 568
die@@ 568
watch@@ 568
dreams 568
russian 568
accurate 567
victims 567
ze@@ 567
pla@@ 566
approach 566
ham 566
bom@@ 566
suit 566
gran@@ 565
tou@@ 565
boss 565
oc@@ 565
pun@@ 564
acking 564
progre@@ 563
twice 563
rey 563
answer 563
sim@@ 563
wea@@ 563
yp@@ 563
disappe@@ 562
helps 562
90 562
breaking 562
radio 562
happening 561
stone 561
cts 561
ry@@ 560
gem 560
cky 560
ren 560
content 560
element 559
nam@@ 559
ts@@ 558
hasnt 558
that@@ 558
therefore 557
emplo@@ 557
professional 557
ahead 556
agent 556
pull 556
there@@ 555
lessly 555
actresses 555
distr@@ 555
delivers 554
roll 554
exception 554
qui@@ 554
absolute 554
spoiler 553
vol@@ 553
clu@@ 553
van@@ 552
appeared 552
drive 552
sight 552
offers 551
screen@@ 551
cher 551
noir 551
shocking 551
air@@ 551
nar@@ 551
gorgeous 551
news 550
wall 550
improv@@ 549
shouldnt 549
mini@@ 549
funniest 549
jac@@ 549
trailer 549
rented 549
queen 549
adds 549
nasty 548
king@@ 548
zation 548
affair 548
martin 548
picked 548
industry 548
defin@@ 548
boat 547
pt 547
allowed 546
hil@@ 546
life@@ 546
ready 545
church 545
adults 545
mediocre 545
collection 545
kers 544
turning 544
aware 544
hin@@ 544
alist 543
jer@@ 543
event 543
wondering 543
stewart 543
cou@@ 542
six 542
proves 542
nic@@ 542
gin@@ 542
trav@@ 542
machine 541
forgotten 541
aring 541
ai@@ 540
vic@@ 540
dom@@ 540
becoming 540
see@@ 540
mine 539
logy 539
negative 539
detail 539
step 539
moon 539
damn 538
kelly 538
system 537
flaws 537
hit@@ 537
mix 537
physical 536
heads 536
animals 535
batman 535
ku@@ 535
impact 534
count 533
reminded 533
table 532
provides 532
shop 532
seconds 531
mom 530
pper 530
pon@@ 530
spar@@ 530
creature 530
sev@@ 530
filmmaking 530
thin 529
illa 529
acc@@ 529
vely 529
stuck 529
ugly 529
spot 529
merely 529
suicide 528
dressed 528
aching 528
alo@@ 528
member 527
this@@ 527
bert 527
artistic 527
inspired 527
cgi 527
explained 527
box@@ 526
followed 525
gging 525
fellow 525
sem@@ 525
hotel 525
leader 525
ket 524
accomp@@ 524
psych@@ 524
kevin 524
awa@@ 523
disaster 523
gers 522
core 522
ot 522
half@@ 522
nov@@ 522
ist@@ 522
wel@@ 522
arthur 521
angry 521
porn 521
plac@@ 521
tragic 521
clich 521
addition 520
sat@@ 520
00 520
teacher 520
serial 519
thoroughly 519
ep 519
super 519
cen@@ 519
soldier 518
fred 518
captain 518
prom@@ 517
quick 517
area 517
hill 517
lov@@ 517
compare 517
joy 517
standards 516
lose 516
syn@@ 516
zero 516
mean@@ 515
commentary 515
tim 515
search 515
thomas 515
listen 514
not@@ 514
ron@@ 514
ach 514
eu@@ 513
states 513
wooden 513
arts 513
direct 511
extra 511
60s 511
realized 511
night@@ 510
mouth 510
flying 510
seven 510
sand@@ 510
imagination 509
teenage 509
carry 509
fat@@ 509
page 509
shel@@ 509
roman@@ 508
fashion 508
disgu@@ 508
afraid 508
lau@@ 508
bly 508
pop 508
thir@@ 508
numbers 508
sens@@ 508
personality 508
deliver 508
bun@@ 508
19@@ 508
lun@@ 508
oning 507
part@@ 507
helped 507
moved 507
lord 507
finished 507
ath@@ 507
ads 507
vir@@ 507
childhood 506
bloody 506
dirty 505
ght 505
deb@@ 505
murders 505
18@@ 505
asked 505
gas 505
anymore 504
continue 504
sci@@ 504
food 504
wind 504
dor@@ 504
more@@ 503
noticed 503
reali@@ 503
refu@@ 503
surprising 503
ann@@ 503
int 502
realism 502
wars 502
wanting 502
fights 502
wo@@ 502
knowledge 501
todays 501
returns 501
ove 501
tragedy 500
ea@@ 500
read@@ 500
pra@@ 499
heroes 499
jason 499
gy 498
house@@ 498
religious 497
gory 497
process 497
epic 497
tons 497
gest 497
mal 496
sm 496
introduced 496
sty@@ 495
responsible 495
lovers 495
sab@@ 495
ron 495
ought 494
describe 494
whatsoever 494
lou@@ 493
bet@@ 493
length 493
000 493
ense 492
rape 492
los 492
tte 492
accept 492
passion 492
ella 491
amed 491
jean 491
chinese 491
stock 490
max 490
scientist 489
holds 489
ast 489
stat@@ 489
sat 488
struggle 488
respe@@ 488
ich 488
provide 487
standing 487
sucks 487
ath 487
fly 487
henry 486
calls 486
slo@@ 485
soci@@ 485
sin 485
limited 485
zi@@ 485
hum@@ 485
work@@ 485
jun@@ 485
ators 484
torture 484
deci@@ 484
dering 484
monsters 484
rarely 483
apartment 483
redeeming 483
non 483
clothes 483
juli@@ 483
trust 482
ells 482
sco@@ 482
powers 482
energy 482
slu@@ 482
recor@@ 482
hidden 482
horse 481
ryan 481
remarkable 481
dangerous 481
gru@@ 481
theatre 481
fat 481
allow 481
laughter 480
lab@@ 480
began 480
includes 480
engaging 480
intriguing 480
val 480
bal 480
kin 480
asks 480
13 479
understanding 479
40 479
cing 478
tears 478
deeply 478
normally 478
accident 478
judge 477
singer 477
memory 477
deserve 477
zo@@ 477
comedic 477
favourite 477
pir@@ 477
independent 477
berg 477
jerry 477
clichs 476
filmmaker 476
winning 476
unknown 476
gene 476
ash@@ 476
deserved 476
ya@@ 476
reminds 475
tape 475
loving 475
sleep 475
action@@ 475
fer 475
watchable 474
after@@ 474
mike 474
design 474
esthe 474
driving 474
exist@@ 474
cked 474
superior 473
graph@@ 473
ond 473
gar 473
ga 473
anybody 472
aged 472
desert 472
danny 472
chop@@ 472
ality 472
suspect 472
fox 472
unusual 472
blame 472
agre@@ 471
anywhere 471
stephen 471
desp@@ 471
intelligence 471
explanation 470
treat 470
shy 470
celebr@@ 470
appropriate 470
year@@ 470
educ@@ 469
williams 468
plots 468
lucky 468
friendship 468
thro@@ 468
hated 467
ello 467
scrip@@ 467
plic@@ 467
pacing 466
clim@@ 466
prove 466
here@@ 466
whilst 465
wonderfully 465
fits 465
cuts 465
brian 465
0s 464
academy 464
ade 464
animal 464
mad@@ 464
ills 464
spi@@ 463
double 463
cker 463
gary 463
memories 463
clau@@ 463
arti@@ 463
jack@@ 462
ate@@ 462
apparent 462
current 462
bat@@ 462
dest 462
pleasure 462
issue 462
yu@@ 461
yn 461
paced 461
grand 461
necessary 460
iled 460
uncle 460
stran@@ 460
nick 460
capture 459
player 459
lar 459
alan 459
martial 458
ll 458
keeping 458
locations 458
compar@@ 458
wide 457
brutal 457
sum@@ 457
ghts 456
desperate 456
cting 456
dered 456
iling 456
ver 455
ight 455
gal@@ 455
bel 455
build 454
break@@ 454
price 454
ffs 454
survi@@ 453
scared 453
ris 453
let@@ 452
treated 452
ki 452
ased 452
players 451
ski 451
land@@ 450
served 450
discover 450
villains 450
gags 450
hood 450
lic 450
warning 450
according 449
guns 449
capable 449
constant 448
vhs 448
regi@@ 448
mach@@ 448
gol@@ 448
mind@@ 448
learned 447
plu@@ 447
bright 447
pair 447
months 447
sisters 447
lowbudget 447
qua@@ 446
ythe 446
eve 446
captured 446
opposite 446
ast@@ 446
dow@@ 446
gotten 446
johnny 446
connection 445
lacking 445
loose 445
addic@@ 444
ening 444
golden 444
creating 444
unnecessary 444
discovered 444
lying 444
sni@@ 444
private 444
fill 444
jr 443
itation 443
broken 443
cars 443
anim@@ 443
gold 443
occasionally 443
ette 442
tain@@ 442
blu@@ 442
community 442
fon@@ 442
references 441
wom@@ 441
dealing 441
loss 441
eddie 441
officer 441
challeng@@ 441
fying 441
indic@@ 441
originally 440
conflict 440
buddy 440
mono@@ 440
sleep@@ 440
somebody 440
starting 440
mrs 440
humans 439
cau@@ 439
q 439
growing 439
ket@@ 439
alism 439
ordinary 439
skip 439
ran 438
heres 438
forces 438
criminal 438
magnificent 437
utter 437
gan 437
ising 436
edited 436
som@@ 436
round 436
histor@@ 436
blood@@ 436
elled 436
dun@@ 436
dol@@ 436
emer@@ 435
naturally 435
mixed 435
adv@@ 435
sign 435
sible 435
eat 435
gold@@ 435
exist 435
bled 435
loo@@ 435
serve 435
finest 434
affec@@ 434
set@@ 434
rob@@ 434
ph 434
whenever 434
antly 433
killers 433
prov@@ 433
post 433
floor 433
py 433
dress 433
lands 433
below 433
ough@@ 433
generation 433
christ@@ 433
prote@@ 433
lish@@ 432
psycho@@ 432
interest@@ 431
cent@@ 431
vel@@ 431
press 431
faith 431
discu@@ 431
range 431
rad@@ 431
respon@@ 431
ans@@ 431
witty 430
jackson 430
fair@@ 430
technical 430
seri@@ 430
fra@@ 430
liter@@ 429
aming 429
weve 428
pit@@ 428
deals 428
hits 428
chil@@ 428
foreign 428
soap 427
viewed 427
ko 427
desire 427
sympathetic 426
arri@@ 426
smile 426
who@@ 426
lev@@ 425
art@@ 425
media 425
ale@@ 425
dent 425
doub@@ 425
ame 424
irs 424
ica 424
humanity 424
genuine 423
manage 423
sean 423
tis 423
cable 423
nicely 423
unfunny 423
artist 422
bland 422
saving 421
direc@@ 421
frame 421
numerous 420
whe@@ 420
hopes 420
hadnt 420
cel@@ 420
1010 420
consider@@ 420
god@@ 419
dimensional 419
bet 419
relate 419
arity 419
00@@ 419
bringing 419
rup@@ 419
legend 419
pain@@ 418
angle 418
saved 418
deser@@ 418
resem@@ 418
record 418
brown 418
crappy 417
ppy 417
comparison 417
feet 417
justi@@ 416
bigger 416
sugge@@ 416
fal@@ 416
castle 416
toward 416
fur@@ 416
stand@@ 416
ony 416
six@@ 415
behavior 415
tage 415
foot 415
seat 415
spanish 415
quiet 414
ence@@ 414
sle@@ 414
rise 414
howard 414
partner 414
stic@@ 413
rubbish 413
sett@@ 413
hitchcock 413
pretentious 413
related 413
bomb 413
humorous 413
wards 412
atives 412
national 412
received 411
fare 411
heroine 411
moore 411
kinda 411
sher@@ 411
bus 411
pilot 411
pract@@ 410
teenagers 410
priest 410
satisfying 410
essentially 410
terribly 409
fail 409
bodies 409
morning 409
aka 409
conv@@ 409
revealed 409
adap@@ 409
genuinely 409
bob 409
ann 409
proved 409
included 408
ites 408
tedly 408
pulled 408
vers 408
jeff 408
ards 407
atory 407
alle@@ 407
repor@@ 407
empty 407
long@@ 407
instance 407
opens 406
ant@@ 406
drunk 406
tiny 406
window 406
par 406
appro@@ 406
log@@ 406
native 406
promo@@ 406
provided 406
dogs 406
stereotypes 406
ours 406
absurd 405
organ@@ 405
90s 405
european 405
jump 405
evol@@ 405
river 405
comman@@ 405
featuring 405
manipul@@ 405
texas 405
murdered 405
davis 404
bum@@ 404
village 404
streets 404
blind 404
gged 404
grant 404
fault 403
laugh@@ 403
meanwhile 403
efforts 403
gie 403
lewis 403
frankly 403
vampires 403
shoo@@ 402
jimmy 402
lake 402
cross 402
claim 402
talents 402
comple@@ 402
reviewers 401
eth@@ 401
described 401
union 401
craft 401
ingthe 401
vote 400
dthe 400
ung 400
remembered 400
ase 400
tie 400
donald 400
insane 400
advice 400
sand 400
ries 399
eating 399
compla@@ 399
dry 399
experienced 399
dish 399
psychological 399
reaction 399
mum@@ 398
promise 398
breaks 398
strength 398
study 398
travel 398
onic 398
types 398
sheer 397
les@@ 397
passed 397
lied 397
grew 396
jennifer 396
rist 396
dreadful 396
results 396
ion 396
regular 396
fame 396
hunter 396
higher 396
ww@@ 395
shi 395
aust@@ 395
united 395
aliens 395
co 395
argu@@ 394
wr@@ 394
cle@@ 394
loses 394
graphy 394
send 394
scream 394
unable 394
wat@@ 394
parody 394
visually 393
satire 393
fu 393
yer 393
portray 393
nightmare 393
mani@@ 393
tal 392
bank 392
promising 392
ture 392
president 392
ain 391
miles 391
england 391
visit 391
choose 391
suff@@ 391
altern@@ 391
sell 391
favor 391
1950s 391
dup 390
ure@@ 390
fathers 390
robin 390
ades 390
youth 390
steven 390
owner 390
wra@@ 389
survive 389
international 389
hi 389
ei@@ 389
sham@@ 389
classics 388
protagonist 388
wear 388
rings 388
irritating 388
tz 388
underrated 388
ousness 388
stum@@ 388
corny 388
wol@@ 388
deli@@ 388
ultimate 388
peoples 388
contrived 388
eye@@ 387
zy 387
haw@@ 387
ser 387
allows 387
unrealistic 387
mature 387
will@@ 387
chap@@ 387
nonsense 386
enter 386
ices 386
mou@@ 386
program 386
comb@@ 386
flashbacks 386
thre@@ 386
continues 386
che 386
fire@@ 386
ints 385
spir@@ 385
twenty 385
ky@@ 385
pac@@ 385
attitude 385
vivi@@ 384
appealing 384
unexpected 384
candy 384
joan 384
mus@@ 384
eric 384
thin@@ 384
built 384
other@@ 384
christi@@ 383
theyve 383
australian 383
sucked 383
fanta@@ 383
green@@ 383
luck 382
onal 382
nin@@ 382
spectacular 382
asian 382
entertain@@ 382
wer@@ 382
rid 381
stated 381
nau@@ 381
ladies 381
suffering 381
gain 381
fate 381
curious 381
meeting 381
light@@ 381
context 381
tel@@ 381
forms 381
cost 380
shallow 380
ato@@ 380
rev@@ 380
screaming 380
failure 380
dick 380
witnes@@ 380
ally@@ 379
simp@@ 379
fest 379
evidence 379
assume 379
steal 379
fif@@ 379
views 379
reach 379
ethe 379
awkward 379
demonstr@@ 379
debut 379
cial 379
ema@@ 379
ances 379
tains 379
taylor 379
mes 378
contrast 378
inci@@ 378
concerned 378
serv@@ 378
iz@@ 378
ets 378
sides 378
power@@ 378
ac 378
worlds 378
nominated 377
football 377
existence 377
commercial 377
disa@@ 377
burn 377
barbara 377
vers@@ 377
freedom 377
lesson 377
satis@@ 376
logic 376
cir@@ 376
cer 376
camp@@ 376
wit 376
skills 375
allen 375
blown 375
grow 375
crit@@ 375
sequ@@ 375
kick 375
statement 375
quest 375
crowd 375
sports 375
scor@@ 375
icks 375
wood@@ 374
recall 374
bin 374
pity 374
andy 374
eag@@ 374
north 373
finale 373
model 373
wy@@ 373
delightful 373
fish 373
scot@@ 372
pressed 372
endless 372
view@@ 371
delivered 371
disp@@ 371
illi@@ 371
dream@@ 371
center 371
walks 371
chief 371
scent 370
exam@@ 370
visuals 370
transform@@ 370
gangster 370
confron@@ 370
again@@ 370
chick 370
matt 370
talks 370
class@@ 370
traditional 369
grown 369
portrays 369
plot@@ 369
product 369
rose 369
itive 369
discovers 369
ships 369
decision 369
mas@@ 369
eds 369
iny 368
overly 368
dou@@ 368
sher 368
grapher 368
lights 368
strongly 368
source 368
dubbed 367
expe@@ 367
ven 367
kins 367
origin@@ 367
gil@@ 367
posed 367
popul@@ 367
individual 367
facts 366
aa@@ 366
identity 366
jesus 366
with@@ 366
sake 366
ignor@@ 366
drag 366
driven 366
nomin@@ 366
disgusting 366
yearold 366
poses 366
families 366
levels 365
devil 365
shall 365
big@@ 365
theaters 365
wedding 365
ency 365
roy 365
moun@@ 365
author 365
combination 365
illu@@ 365
experim@@ 364
cameo 364
bell 364
dul@@ 364
relief 364
tch 364
ems 364
adverti@@ 364
emotionally 364
versions 364
formula 363
fail@@ 363
lane 363
asking 363
critical 363
adam 363
acked 362
europe 362
creates 362
gonna 362
creatures 362
positi@@ 362
actor@@ 362
steals 362
heaven 362
speech 362
nation 362
rules 361
speed 361
ax@@ 361
emp@@ 361
boun@@ 361
ee@@ 361
horri@@ 361
necessarily 361
involves 361
aded 361
fel@@ 361
moo@@ 361
hall 361
crash 361
frustr@@ 360
tation 360
ssy 360
dence 360
enter@@ 360
kit@@ 360
beat@@ 360
competent 360
err@@ 360
que@@ 360
irish 359
fic@@ 359
sthis 359
teens 359
tight 359
handsome 359
arch@@ 359
bud@@ 359
ddy 358
kill@@ 358
movi@@ 358
mate 358
chosen 357
rep@@ 357
characteri@@ 357
homo@@ 357
faced 357
brea@@ 357
choreo@@ 357
pul@@ 357
proper 357
till 357
inst@@ 357
25 356
perspective 356
sudden 356
hopefully 356
posse@@ 356
rob 356
des@@ 356
reviewer 356
clean 356
placed 356
hunt 355
skin 355
heck 355
hole 355
uk 355
mem@@ 355
equi@@ 355
dram@@ 355
losing 355
ority 355
remain 355
dden 355
chan 355
caused 355
julie 355
brilliantly 354
france 354
confi@@ 354
beach 354
believes 354
service 354
ite@@ 354
elling 354
@@ 354
are@@ 353
destroy 353
ared 353
close@@ 353
louis 353
jected 353
patrick 353
investig@@ 352
produce 352
pati@@ 352
mari@@ 352
witness 352
warm 352
pil@@ 352
cia 352
vin 352
rescue 351
scale 351
fies 351
terror 350
theatrical 350
ancient 350
soft 350
ue 350
nevertheless 350
decade 349
dness 349
anthony 349
less@@ 349
serves 349
majority 349
kong 349
accur@@ 349
convic@@ 349
vehicle 349
rolling 349
rab@@ 349
sheriff 349
mur@@ 348
peri@@ 348
research 348
develop 348
depressing 348
executed 348
bear 348
shakespeare 347
halloween 347
studios 347
courage 347
excited 347
insult 347
gan@@ 347
clue 347
figured 347
network 347
awards 347
teenager 347
walked 347
weeks 347
wayne 347
girl@@ 347
just@@ 347
market 347
horribly 347
q@@ 346
desi@@ 346
evening 346
vel 346
shocked 346
rental 346
bbc 345
americ@@ 345
stein 345
learns 345
sul@@ 345
11 345
stop@@ 345
1970s 345
pleasant 345
section 344
cares 344
offensive 344
hearing 344
creep@@ 344
wins 344
keaton 344
50s 344
saturday 343
thoughts 343
sexuality 343
hair@@ 343
quo@@ 343
kir@@ 343
hat@@ 343
paper 343
mask 343
icate 343
voices 342
list@@ 342
plans 342
philosoph@@ 342
covered 342
subtitles 342
enemy 342
surreal 341
horror@@ 341
ences 341
contemporary 341
broo@@ 341
prof@@ 341
jay 341
1st 341
movies@@ 340
revol@@ 340
dollars 340
clar@@ 340
douglas 340
angles 340
sno@@ 340
bac@@ 340
stopped 340
flesh 340
driver 340
hero@@ 340
recognize 339
arms 339
810 339
presentation 339
blonde 339
gratuitous 339
adventures 339
code 339
conclu@@ 338
correct 338
abu@@ 338
betra@@ 338
susp@@ 338
darkness 338
obsessed 338
great@@ 338
dennis 338
sequels 337
dys 337
rat@@ 337
empha@@ 337
excep@@ 337
tting 337
matters 337
profes@@ 337
circumstances 337
tering 337
admir@@ 337
winner 337
mates 336
speci@@ 336
anger 336
cking 336
extras 336
eight 336
technology 336
enthusi@@ 336
claims 336
spends 336
sibility 336
ese 336
prince 336
lor@@ 336
guard 335
bmovie 335
world@@ 335
cash 335
relevant 335
tedious 335
weight 335
blow 335
san 335
tun@@ 335
inf@@ 335
lo 335
propaganda 334
exploitation 334
influ@@ 334
costs 334
mit@@ 333
jewish 333
ential 333
twisted 333
alice 333
sit@@ 333
latest 333
directly 333
ature 333
alex 333
surface 332
ture@@ 332
adding 332
sp 332
depicted 332
handled 332
form@@ 332
virtually 332
embarrassing 332
love@@ 331
jum@@ 331
painfully 331
relatively 331
nes@@ 331
pos@@ 331
ician 331
lesbian 331
small@@ 331
factor 331
ro 331
otic 330
portraying 330
rely 330
mar 330
apo@@ 330
fted 330
holding 330
extraordinary 330
lynch 330
japan 330
liber@@ 329
print 329
nichol@@ 329
sharp 329
ital 329
sorts 329
cast@@ 329
au 328
chair 328
arm 328
rain 328
mented 327
home@@ 327
suffers 327
treatment 327
grave 327
net@@ 327
ken@@ 327
bound 327
elle 327
spre@@ 327
scare 327
changing 327
sue 327
shine 327
robb@@ 327
cutting 327
largely 327
committed 327
sele@@ 326
straight@@ 326
prepared 326
stically 326
civili@@ 326
harris 326
captures 326
larry 326
cartoons 326
ames 326
til@@ 326
pres@@ 326
veteran 326
ext@@ 326
performed 325
sympathy 325
narr@@ 325
slapstick 325
iti 325
lousy 325
steps 325
va 325
dynam@@ 325
water@@ 324
jar@@ 324
ssion 324
halfway 324
marry 324
ye 324
size 324
canadian 324
universal 324
ruined 324
dead@@ 323
unfortunate 323
daughters 323
suspenseful 323
sensitive 323
ca 323
produc@@ 323
rela@@ 323
tend 323
rights 322
amateurish 322
accep@@ 322
refer@@ 322
blin@@ 322
estab@@ 322
short@@ 322
forth 322
motiv@@ 322
segment 322
asleep 322
old@@ 321
dec@@ 321
andor 321
costume 321
trek 321
fe 321
suppor@@ 321
joseph 321
predic@@ 321
structure 321
religion 321
ado@@ 321
craw@@ 321
germany 321
convince 321
angel 321
hang@@ 320
substance 320
chron@@ 320
significant 320
experiences 320
peace 320
zu@@ 320
defe@@ 320
elizabeth 320
viol@@ 320
ounded 320
ace@@ 319
enters 319
bow@@ 319
kings 319
childrens 319
hide 319
outing 319
regard 319
arm@@ 319
guilty 319
focused 319
broadway 319
stan 319
erotic 318
person@@ 318
ena 318
pay@@ 318
murder@@ 318
za 318
toler@@ 318
tab@@ 318
spite 317
spor@@ 317
morgan 317
presents 317
ine@@ 317
wns 317
patient 317
previously 317
ound 317
compan@@ 317
spoil 317
demons 317
brid@@ 317
iro 317
psycho 316
hanging 316
qualities 316
cket 316
rever@@ 316
brain@@ 316
mainstream 315
professor 315
stereotypical 315
edward 315
washington 315
deadly 315
target 315
weak@@ 315
jackie 315
safe 315
universe 315
bed@@ 315
minds 315
practically 315
draw 315
va@@ 315
haunting 314
enced 314
required 314
sou@@ 314
welcome 313
pet 313
lins 313
stron@@ 313
py@@ 313
wn@@ 313
appreciated 313
express 313
bie 313
every@@ 313
bot@@ 313
polic@@ 313
display 313
xi@@ 312
gui@@ 312
chose 312
mountain 312
clichd 312
cage 312
faithful 312
kate 312
samu@@ 312
tives 312
friend@@ 312
dean 312
inform@@ 312
fic 312
thu@@ 312
pulls 311
know@@ 311
reveal 311
coinci@@ 311
supernatural 311
variety 311
speaks 311
wide@@ 311
termin@@ 310
exact 310
notch 310
eves 310
dings 310
fem@@ 310
iced 310
gate 310
department 310
bone 310
security 309
schem@@ 309
text 309
ales 309
albert 309
trapped 309
accidentally 309
walter 309
prime 309
jungle 309
dents 309
ces@@ 309
how@@ 309
desig@@ 309
fs 309
friday 309
massive 309
amateur 309
forgot 309
brit@@ 309
featured 309
forest 309
consist@@ 309
ental 308
excitement 308
continu@@ 308
ures 308
ut 308
degree 308
oni@@ 308
contain@@ 308
side@@ 308
drop 308
dude 308
closer 308
imaginative 308
legal 308
believed 308
captiv@@ 308
sun 308
roger 308
superman 307
oney 307
naive 307
tically 307
poin@@ 307
ound@@ 307
idiot 307
thankfully 307
seasons 307
contra@@ 307
routine 307
granted 307
truck 307
710 307
chee@@ 307
mum 306
vari@@ 306
conversation 306
gordon 306
jen@@ 306
cases 306
introdu@@ 306
stupi@@ 306
cell 305
overthetop 305
logi@@ 305
trou@@ 305
cham@@ 305
westerns 305
refreshing 305
sent@@ 305
lead@@ 305
entertained 305
ali 305
1980s 305
simon 305
rer 305
birth 305
stolen 304
influence 304
buil@@ 304
deaths 304
training 304
secon@@ 304
occur@@ 304
dur@@ 304
chu@@ 304
rer@@ 304
seagal 304
spoof 304
eat@@ 304
crying 304
beli@@ 304
category 304
canni@@ 304
menti@@ 303
vict@@ 303
calling 303
dil@@ 303
remotely 303
cruel 303
abuse 303
lyn@@ 303
holly@@ 303
trilogy 303
movement 303
storytelling 303
regret 302
ash 302
harsh 302
worthwhile 302
zens 302
aging 302
drew 302
cure 302
spin@@ 302
bron@@ 302
rin@@ 302
constru@@ 302
devo@@ 302
holmes 302
mildly 301
ption 301
china 301
icity 301
dark@@ 301
az@@ 301
danger 301
tarzan 301
ome 301
yl@@ 301
lion 301
abandoned 301
hitler 301
nol@@ 301
sne@@ 300
death@@ 300
carries 300
anime 300
usa 300
unlikely 300
asi@@ 300
mon 300
storm 300
human@@ 300
verse 300
friendly 300
pses 300
convinced 300
ficial 300
robot 300
bothered 300
encounter 299
quar@@ 299
roberts 299
accents 299
ish@@ 299
forgettable 299
activ@@ 299
omin@@ 299
clean@@ 299
balls 299
stayed 299
mickey 299
philli@@ 299
kinds 299
wolf 299
wilson 298
lower 298
depic@@ 298
port@@ 298
nostal@@ 298
fascin@@ 298
everywhere 298
ville 298
oul@@ 298
weekend 297
quirky 297
reporter 297
term 297
instru@@ 297
us@@ 297
multiple 297
develop@@ 297
renting 297
rolled 297
mistakes 297
ingers 297
teeth 297
ald 296
corpor@@ 296
continuity 296
ric 296
sco 296
keys 296
concentr@@ 296
belief 296
ura 296
amazingly 296
regarding 296
uring 296
initial 296
effectively 296
praise 296
sav@@ 296
ements 295
shir@@ 295
legendary 295
touches 295
explains 295
daniel 295
ban 295
hired 295
stoo@@ 295
bath@@ 295
downright 295
disappoin@@ 294
aint 294
410 294
magical 294
sick@@ 294
sel 294
eg 294
ripoff 294
destroyed 294
premi@@ 294
flight 294
marks 294
passing 294
terri@@ 293
dozen 293
summary 293
account 293
tack@@ 293
ounds 293
nurse 293
web@@ 293
brave 293
mol@@ 293
fast@@ 293
tv@@ 293
charge 293
hed 293
turkey 293
false 293
caine 293
murphy 293
phi@@ 292
clic@@ 292
var@@ 292
rip 292
melodrama 292
gritty 292
colors 292
east 292
throws 292
14 292
neys 292
program@@ 292
emma 292
pile 291
villa@@ 291
aries 291
california 291
throwing 291
solve 291
bin@@ 291
outs 291
spy 291
eigh@@ 291
onally 291
handed 291
werewolf 291
ama@@ 291
avoi@@ 291
fool 291
laura 291
provoking 291
julia 291
focuses 290
raised 290
help@@ 290
neck 290
tain 290
listening 290
alike 290
192@@ 290
ior 290
woo@@ 290
ghtful 290
ops 290
child@@ 290
proce@@ 290
supp@@ 290
designed 290
whoever 289
middle@@ 289
swit@@ 289
notic@@ 289
haunted 289
spoiler@@ 289
ny@@ 289
sir 289
icious 289
dal@@ 289
ache 289
hang 289
ditions 289
intr@@ 289
surprises 289
productions 289
seek 289
pose 289
blockbuster 288
occasional 288
ves@@ 288
kim 288
victor 288
chaplin 288
hat 288
greater 288
prior 288
atrocious 288
originality 288
african 288
free@@ 288
ille 288
2001 288
tren@@ 288
regar@@ 287
mothers 287
pid 287
brooks 287
fox@@ 287
indi@@ 287
nan@@ 287
sounded 287
bra 287
spoken 287
ler@@ 287
duced 287
favorites 287
sig@@ 287
spac@@ 287
ison 287
gul@@ 287
inner 287
spa@@ 286
narration 286
miniseries 286
buying 286
flashback 286
intenti@@ 286
alright 286
subplot 286
run@@ 286
contr@@ 286
resul@@ 285
stood 285
mob@@ 285
interview 285
touched 285
fortunately 285
politics 285
stam@@ 285
understood 285
mm 285
weapons 284
journ@@ 284
retarded 284
effec@@ 284
famil@@ 284
walker 284
rule 284
tual 284
pleas@@ 284
medi@@ 283
africa 283
fortune 283
civil 283
beast 283
main@@ 283
reveals 283
massacre 283
execution 283
lifetime 283
proud 283
tam@@ 283
trap 283
heavily 283
racist 283
rell 283
ez 283
sold 282
divor@@ 282
ized 282
vent@@ 282
scenario 282
zer 282
caring 282
myster@@ 282
writerdirector 282
complicated 282
insight 282
load 282
13@@ 282
eption 282
claimed 282
champi@@ 282
elev@@ 282
better@@ 282
dracula 282
facial 281
engin@@ 281
deeper 281
terrori@@ 281
depiction 281
hack@@ 281
stance 281
phan@@ 281
choices 281
prefer 281
titles 281
cost@@ 281
suck 281
vietnam 281
kets 281
campy 281
fron@@ 280
warned 280
smoo@@ 280
lay 280
welles 280
spee@@ 280
cali@@ 280
perform 280
treasure 280
puzz@@ 280
sever@@ 280
headed 280
demon 280
rock@@ 280
dollar 280
kiss 280
funnier 280
stranger 280
wears 279
inha@@ 279
baseball 279
row@@ 279
senti@@ 279
status 279
mel 279
racism 279
closing 279
differ@@ 279
zar@@ 279
hay@@ 279
urban 279
deal@@ 278
blat@@ 278
repeated 278
stays 278
barry 278
tor 278
director@@ 278
overwhel@@ 278
dir@@ 278
assass@@ 278
yal 278
imagery 278
happen@@ 278
chased 278
tively 278
reputation 278
donna 278
junk 277
southern 277
ita 277
17 277
patri@@ 277
paying 277
intellectual 277
frightening 277
rough 277
lan 277
posing 277
ctor 277
starred 277
anderson 277
rub@@ 276
essential 276
skill 276
believ@@ 276
110 276
arrives 276
dv@@ 276
lonely 276
hide@@ 276
drinking 276
explor@@ 276
emo@@ 276
combined 276
rapi@@ 276
event@@ 276
wouldve 276
sear@@ 276
blah 276
glass 275
tish 275
typ@@ 275
ading 275
host 275
hong 275
aks 275
helping 275
doo@@ 275
sport 275
two@@ 275
locked 275
occa@@ 275
criticism 275
shorts 275
shadow 275
realizes 275
nic 275
fx 274
virgin@@ 274
signed 274
stric@@ 274
rou@@ 274
finan@@ 274
consi@@ 274
pregnant 274
med@@ 274
johnson 274
remote 274
surviv@@ 274
rank 274
fav@@ 274
bio@@ 274
neu@@ 274
thor@@ 274
bag 274
radi@@ 274
ja 274
timing 274
figures 274
correc@@ 274
unfol@@ 273
smar@@ 273
initially 273
oli@@ 273
counter@@ 273
faul@@ 273
chasing 273
shu@@ 273
ctions 273
base 273
beloved 273
stab@@ 273
metal 273
310 272
gruesome 272
drives 272
susan 272
mob 272
technically 272
mentally 272
interviews 272
separate 272
gree@@ 272
expression 272
maker 272
raw 272
yers 272
pier@@ 272
searching 272
examples 271
artists 271
bren@@ 271
icians 271
vin@@ 271
balance 271
vest@@ 271
theory 271
santa 271
alized 271
unk 271
much@@ 271
dinner 271
ruin 270
expressions 270
grin@@ 270
entertain 270
highlight 270
attempting 270
albeit 270
jail 270
femin@@ 270
daily 270
consistent 270
tthe 270
leon@@ 270
cultural 270
sits 270
sop@@ 270
robo@@ 269
parker 269
polit@@ 269
nest 269
reminiscent 269
princess 269
underground 269
snow@@ 269
mere 269
eman 269
delivery 269
flat@@ 269
gentle@@ 269
temp@@ 269
tast@@ 269
atically 269
appe@@ 269
pa 269
ignore 268
screening 268
commit@@ 268
lawyer 268
mexican 268
murderer 268
oliver 268
publ@@ 268
handle 268
ssie 268
docu@@ 268
band@@ 268
tures 268
gn@@ 268
path 268
task 268
capit@@ 268
entered 268
carried 268
scoo@@ 268
antoni@@ 268
couldve 268
struck 267
shoul@@ 267
preci@@ 267
amongst 267
nude 267
dder 267
sie 267
mann 267
ranks 267
cinemato@@ 267
than@@ 267
colum@@ 267
rence 267
tional 267
daw@@ 266
shell 266
smu@@ 266
flow 266
princi@@ 266
kov@@ 266
angel@@ 266
thought@@ 266
russell 266
shor@@ 266
goofy 266
bore 265
safe@@ 265
grab@@ 265
struggling 265
lif@@ 265
device 265
roun@@ 265
minded 265
com 265
wwii 265
kis@@ 265
assa@@ 265
proof 264
nights 264
indie 264
assi@@ 264
20@@ 264
offered 264
breathtaking 264
uninteresting 264
coach 264
lished 264
amazed 264
jon 264
afternoon 264
bugs 264
kat@@ 264
guarante@@ 264
gang@@ 263
recei@@ 263
shut 263
nt 263
determined 263
buff@@ 263
unconvincing 263
chuck 263
understand@@ 263
sitcom 263
catherine 263
ssive 263
ho 263
decades 263
controversial 263
rage 262
integr@@ 262
conveni@@ 262
burns 262
jobs 262
inept 262
ted@@ 262
gradu@@ 262
guest 262
rele@@ 262
entry 262
novels 262
borro@@ 262
desperately 262
910 262
curse 262
diti@@ 261
come@@ 261
protagonists 261
aper 261
alty 261
space@@ 261
sleeping 261
nonexistent 261
cats 261
uns 261
join 261
perc@@ 261
45 261
onel 261
tales 261
mid 260
threat@@ 260
fbi 260
letting 260
scripts 260
vau@@ 260
book@@ 260
gia 260
thom@@ 260
swi@@ 260
recogni@@ 260
div@@ 260
plau@@ 260
kil@@ 260
inging 259
inspiration 259
india 259
accepted 259
deliber@@ 259
conve@@ 259
sunday 259
alistic 259
contain 259
ghosts 259
moder@@ 259
bridge 259
line@@ 259
aced 259
attacks 259
tommy 259
itthe 259
comfor@@ 258
kane 258
deni@@ 258
funny@@ 258
packed 258
purely 258
cover@@ 258
factory 258
environment 258
ice@@ 258
fabulous 258
convey 258
yard 258
doo 258
eph@@ 258
strangely 257
protect 257
revolves 257
cis 257
ironic 257
crude 257
scares 257
michelle 257
fictional 257
court@@ 257
notable 257
isms 257
fourth 257
atlan@@ 257
dramas 257
lisa 257
ination 257
jeff@@ 257
hipp@@ 257
crafted 257
properly 257
picks 257
obje@@ 257
muppe@@ 257
snow 256
absor@@ 256
occu@@ 256
suits 256
hs 256
graphics 256
brun@@ 256
answers 256
clark 256
embarrass@@ 256
internet 256
amu@@ 256
like@@ 256
gas@@ 256
krist@@ 256
successfully 256
contact 255
cs 255
ini 255
ensu@@ 255
sarah 255
clips 255
league 255
now@@ 255
riding 255
ashamed 255
turing 255
von 255
hence 254
labor@@ 254
og@@ 254
mindless 254
criminals 254
itor 254
incor@@ 254
seeking 254
follow@@ 254
geor@@ 254
introduction 254
drink 254
conventional 254
hau@@ 254
prefer@@ 254
tane@@ 254
tree 254
description 254
ino 253
ual 253
destro@@ 253
wealthy 253
slow@@ 253
recre@@ 253
ood@@ 253
fing 253
ring@@ 253
whereas 253
court 253
sively 253
ddled 253
marke@@ 253
escap@@ 253
dete@@ 253
pointed 253
autom@@ 253
authentic 253
medical 253
bi 253
conflic@@ 253
luke 252
sword 252
stev@@ 252
acle 252
appreci@@ 252
enjoying 252
chilling 252
mgm 252
seen@@ 252
learning 252
dos 252
happiness 252
ility 252
num@@ 252
interpretation 252
ough 252
fts 252
hall@@ 252
question@@ 252
arly 252
frequently 252
nuclear 252
revie@@ 252
cowboy 252
tery 252
icking 251
countries 251
hot@@ 251
titled 251
causes 251
mond 251
icked 251
obnoxious 251
raise 251
letter 251
format 251
separ@@ 251
ually 251
succeeds 251
franken@@ 251
carrying 251
miller 251
risk 250
moment@@ 250
topic 250
cle 250
filmthe 250
comical 250
chester 250
plastic 250
breath 250
sympa@@ 250
zo 250
suffer 250
orable 250
kens 250
struc@@ 250
pants 250
pack 249
bern@@ 249
yan@@ 249
comprehen@@ 249
tionary 249
kicks 249
screenwriter 249
boar@@ 249
jects 249
etern@@ 249
sinister 249
possi@@ 249
contribu@@ 249
contin@@ 249
concert 249
lloyd 249
sinatra 249
hearted 248
fers 248
fallen 248
respect@@ 248
inspiring 248
cooper 248
ghtly 248
paint 248
commun@@ 248
scientists 248
guessing 248
choo@@ 248
stupidity 248
associ@@ 248
bers 248
flawed 248
sum 248
announ@@ 248
urs 248
sies 248
sif 248
nonetheless 247
ues 247
achieve 247
conscious 247
esque 247
gla@@ 247
ests 247
aps 247
ups 247
idiotic 247
crow@@ 247
bollywood 247
blair 247
equ@@ 247
scrat@@ 247
tense 247
vy 247
amy 247
vincent 247
beth 247
basis 247
bird 246
lessons 246
ratings 246
tradition 246
deri@@ 246
gic 246
consists 246
own@@ 246
bilities 246
everyday 246
ggy 246
extent 246
hoffman 246
rhy@@ 245
attacked 245
voice@@ 245
han 245
helen 245
aches 245
struggles 245
poignant 245
dislike 245
jamie 245
cynical 245
opened 244
challenge 244
ured 244
parano@@ 244
tied 244
vacation 244
chases 244
assistant 244
hardy 244
bourne 244
weir@@ 244
ary@@ 243
lovable 243
punch 243
conc@@ 243
experiment 243
thousands 243
stunts 243
listed 243
stunn@@ 243
ludicrous 243
dear 243
lazy 243
stylish 243
trium@@ 243
buck 243
soviet 243
stops 243
jes@@ 243
aim@@ 243
soft@@ 243
dragon 243
eland 242
ghet@@ 242
revolution 242
compe@@ 242
kung 242
immen@@ 242
bucks 242
destin@@ 242
descen@@ 242
kest 242
demo@@ 242
host@@ 242
avi@@ 241
contri@@ 241
italy 241
depar@@ 241
reference 241
millions 241
hundred 241
spin 241
midnight 241
ign 241
amaz@@ 241
innocence 241
answer@@ 241
ski@@ 241
valu@@ 241
alcoho@@ 241
drun@@ 241
18 241
nowadays 241
pie 241
disagree 241
actic 241
fighter 241
wells 240
honor 240
madness 240
ex 240
upset 240
whi@@ 240
zard 240
warn 240
nicol@@ 240
voc@@ 240
stealing 240
technique 239
aired 239
tune 239
greatly 239
mas 239
selling 239
chuck@@ 239
comedian 239
flaw 239
exceptional 239
alas 239
credible 239
scon@@ 239
rain@@ 239
fed 239
marie 239
dare 238
troubled 238
cers 238
moviethe 238
hills 238
shadows 238
amor@@ 238
casu@@ 238
tle@@ 238
sleazy 238
revolu@@ 238
quis@@ 238
cheese 238
hilari@@ 238
excell@@ 238
ona 238
1930s 238
sed@@ 238
syl@@ 238
regardless 238
wave 238
hundreds 238
fairy 238
woody 237
settings 237
torn 237
silence 237
manager 237
noted 237
rival 237
eastwood 237
cour@@ 237
dge@@ 237
cousin 237
oo 237
happily 237
replaced 237
slight 237
cheap@@ 237
stomach 237
mouse 237
worry 237
indu@@ 237
inten@@ 237
acceptable 237
hell@@ 237
critici@@ 236
clum@@ 236
bia 236
quali@@ 236
exists 236
circu@@ 236
trick 236
cand@@ 236
connec@@ 236
inct 236
bby 236
dict@@ 236
fication 236
mechan@@ 236
abilities 236
confusion 236
revi@@ 236
mexico 236
chur@@ 236
innov@@ 235
where@@ 235
ds@@ 235
pear@@ 235
mic 235
navy 235
sings 235
cut@@ 235
socalled 235
trom@@ 235
mighty 235
right@@ 235
iser 235
suffered 235
manu@@ 235
flash 235
comment@@ 235
hal 234
disbelief 234
bloo@@ 234
rum@@ 234
audi@@ 234
advantage 234
ention 234
itions 234
horrific 234
instantly 234
gent 234
consu@@ 234
doors 234
typically 234
joh@@ 233
connected 233
delight 233
physically 233
videos 233
itably 233
appearing 233
hearts 233
prob@@ 233
oblig@@ 233
sign@@ 233
string 233
thief 233
room@@ 233
exp@@ 233
card 233
grim 233
vac@@ 233
2005 233
quote 233
succeed 233
pool 233
escapes 233
angels 233
dave 233
ttes 233
oz 232
sophisticated 232
nazis 232
fields 232
caric@@ 232
remind 232
get@@ 232
spl@@ 232
brad 232
creation 232
nazi 232
spots 232
intensity 232
ingi 232
iles 232
ong@@ 232
displa@@ 232
weapon 232
toy 232
yl 232
laun@@ 232
mode@@ 232
tribute 232
wasting 232
harri@@ 232
poo@@ 231
expert 231
farm 231
dealt 231
ury 231
gods 231
trial 231
ambigu@@ 231
murray 231
surrounding 231
quire 231
briefly 231
hiding 231
adi@@ 231
warner 231
psychiat@@ 231
cus@@ 231
sym@@ 231
scarec@@ 231
inge 231
gus 231
achiev@@ 231
masters 230
oddly 230
oul 230
alien@@ 230
bitter 230
shap@@ 230
australia 230
obsession 230
mill@@ 230
install@@ 230
descri@@ 230
ende@@ 230
embarrassed 230
mirror 230
gotta 230
hint 230
patter@@ 230
sandra 230
needless 230
columbo 230
ult 230
li 230
een 229
country@@ 229
gripping 229
thers 229
wher@@ 229
credibility 229
ached 229
mix@@ 229
closely 229
tire@@ 229
sionate 229
enting 229
solved 229
fact@@ 229
birthday 229
andrews 229
music@@ 229
wanna 228
sna@@ 228
vity 228
silver 228
omy 228
suggests 228
pers 228
tour 228
monkey 228
shape 228
stuff@@ 228
fix@@ 228
dawn 228
advan@@ 228
shoots 228
individuals 228
essence 228
irrit@@ 228
meaningful 228
saves 228
pseu@@ 227
discovery 227
zone 227
vil@@ 227
attr@@ 227
con 227
womans 227
sends 227
established 227
comedy@@ 227
attraction 227
shines 227
tless 227
ired 227
musicals 227
attempted 227
laid 227
eness 227
matrix 226
fit@@ 226
mst3k 226
guts 226
kidnapped 226
jonathan 226
fish@@ 226
ripped 226
dog@@ 226
teach 226
ball@@ 226
anced 226
dental 226
stern 226
shop@@ 226
cher@@ 226
ould@@ 226
lum 226
appearances 226
lone 226
tations 226
germans 226
jessica 226
kubr@@ 226
video@@ 225
busy 225
achieved 225
marvelous 225
swim@@ 225
blade 225
teen@@ 225
betty 225
mo 225
2006 225
burt 225
chic@@ 225
horses 225
cies 225
vet 225
ished 225
husbands 225
clever@@ 225
nick@@ 224
say@@ 224
miser@@ 224
stress 224
importantly 224
condition 224
bearable 224
uous 224
workers 224
repeat 224
roy@@ 224
smo@@ 224
incident 224
tta 224
nine 224
greek 224
rush 224
active 224
kennedy 224
seduc@@ 224
snakes 224
shakespe@@ 223
traum@@ 223
age@@ 223
alex@@ 223
subur@@ 223
1960s 223
irony 223
pursu@@ 223
bare 223
milli@@ 223
hes@@ 223
exercise 223
symbo@@ 223
80 223
croo@@ 222
judg@@ 222
compas@@ 222
ety 222
philip 222
trail@@ 222
full@@ 222
observ@@ 222
atmospheric 222
specific 222
tman 222
anticip@@ 222
reynolds 222
overcome 222
fancy 222
subplots 222
pack@@ 222
object 222
bobby 222
father@@ 222
hooked 221
jumps 221
enly 221
notorious 221
bil@@ 221
colorful 221
wreck 221
gross 221
16 221
sutherland 221
spoo@@ 221
jam@@ 221
mom@@ 221
gag 221
performers 221
sby 221
lei@@ 220
ada 220
distinc@@ 220
refuses 220
broke 220
thrillers 220
expensive 220
outrageous 220
demon@@ 220
uted 220
delu@@ 220
gon@@ 220
nancy 220
grounds 220
nose 220
techniques 219
hitting 219
vul@@ 219
fol@@ 219
point@@ 219
thousand 219
neighb@@ 219
2000 219
thrill@@ 219
impressi@@ 219
equal 219
difficul@@ 219
tched 219
pitch 219
victoria 219
oni 219
uninspired 219
vit@@ 219
cinderella 219
sche@@ 218
ourselves 218
glory 218
inher@@ 218
exces@@ 218
heav@@ 218
cock@@ 218
precious 218
leng@@ 218
ot@@ 218
birds 218
profound 218
tian 218
lesser 218
best@@ 218
cave 218
doctors 218
sca@@ 218
signific@@ 218
pum@@ 218
zzy 218
intentions 218
blance 218
elty 218
supre@@ 218
meat 218
smoking 217
thrilling 217
expla@@ 217
sally 217
basement 217
ow 217
eni@@ 217
acting@@ 217
melodramatic 217
agu@@ 217
annoyed 217
hei@@ 217
guide 217
99 217
health 217
legs 217
bc 217
stunt 217
spending 217
hunting 217
styles 217
electr@@ 217
vein 217
raped 217
dley 217
logist 217
dam 217
dow 217
rushed 216
dit@@ 216
franchise 216
elsewhere 216
kel@@ 216
opposed 216
sbut 216
persons 216
moviei 216
motor@@ 216
restra@@ 216
contem@@ 216
flash@@ 216
marine 216
develops 216
heal@@ 216
cameron 216
anders 216
imit@@ 216
increasingly 216
rachel 216
bette 215
forgi@@ 215
earth@@ 215
picking 215
ounding 215
execu@@ 215
outer 215
denti@@ 215
bull@@ 215
sma@@ 215
phil@@ 215
personalities 215
concerns 215
arming 215
glimpse 215
jo 215
ensemble 215
resc@@ 215
mont@@ 215
redemption 215
nit@@ 214
karen 214
mother@@ 214
belongs 214
consequences 214
blows 214
idi@@ 214
adapted 214
miscast 214
stanwyck 214
hul@@ 214
ced@@ 214
unforgettable 214
hire 214
holiday 214
fitting 214
predator 214
oil 214
aunt 214
schoo@@ 214
tech@@ 214
revelation 214
striking 214
adul@@ 214
useless 214
portrait 213
souls 213
smoke 213
performing 213
counts 213
ralph 213
setup 213
pacino 213
210 213
pick@@ 213
sentimental 213
wic@@ 213
shortly 213
bill@@ 213
corner 213
nel 213
rot 213
distribu@@ 213
spon@@ 213
immi@@ 213
tol@@ 213
honest@@ 213
sau@@ 213
covers 213
suspe@@ 212
burning 212
battle@@ 212
intim@@ 212
scope 212
bush 212
eled 212
importance 212
repeatedly 212
checking 212
sources 212
stit@@ 212
ases 212
dimen@@ 212
exper@@ 212
detr@@ 212
reg@@ 212
rel 212
emily 212
rein@@ 212
homage 212
leslie 212
heist 212
dolph 212
knife 212
theyd 211
encounters 211
beings 211
oscars 211
cross@@ 211
holo@@ 211
easier 211
clint 211
fashioned 211
bat 211
brand 211
hype 211
jor@@ 211
crimes 211
20th 211
secre@@ 211
newsp@@ 211
corrupt 211
stitu@@ 211
mass 211
ial 211
still@@ 211
enjoyment 211
reasonable 211
pat 210
wrong@@ 210
splen@@ 210
identify 210
hitchco@@ 210
ay 210
ei 210
ero@@ 210
stretch 210
itu@@ 210
ling@@ 210
absur@@ 210
tracks 210
repetitive 210
amb@@ 210
nee@@ 210
folk 210
destruction 210
push 210
bes 210
shirt 210
reasonably 210
joy@@ 210
econ@@ 210
jean@@ 210
rocks 210
dition 210
mut@@ 209
daf@@ 209
60 209
crisis 209
drags 209
shark 209
beer 209
cameos 209
shat@@ 209
competition 209
through@@ 209
pert 209
tall 209
battles 209
hammer 209
laurel 209
threw 209
elli@@ 209
illustr@@ 209
rogers 209
theat@@ 209
your@@ 209
indians 209
ninja 209
enda 208
manner@@ 208
intrigu@@ 208
formed 208
bay 208
gen 208
cheer@@ 208
maid 208
ambitious 208
lacked 208
arran@@ 208
burton 208
remaining 208
orchest@@ 208
venge@@ 208
dancer 208
infamous 208
eo 208
confes@@ 208
dragged 208
foot@@ 208
lack@@ 208
maria 208
consci@@ 208
uncomfortable 207
dropped 207
gon 207
suspen@@ 207
eleg@@ 207
0000 207
ray@@ 207
talked 207
sticks 207
evo@@ 207
waters 207
nut@@ 207
horrors 207
library 207
eding 207
multi@@ 207
bible 207
spec@@ 207
powell 207
dill@@ 207
jerk 207
ots 207
bow 207
dubbing 207
lett 207
shoes 207
minimal 207
hill@@ 206
revealing 206
reason@@ 206
returning 206
suspects 206
attracted 206
korean 206
north@@ 206
cab@@ 206
wicked 206
ol 206
wrest@@ 206
pulp 206
mers 206
isation 206
freddy 206
arnold 206
grows 206
willi@@ 206
pan 206
exor@@ 206
wake 206
cabin 206
doom@@ 206
along@@ 206
embr@@ 206
rita 206
cinem@@ 206
hardcore 205
valent 205
flynn 205
pulling 205
15@@ 205
godfather 205
invisible 205
vals 205
sole 205
split 205
aces 205
dia 205
particip@@ 205
countless 205
endearing 205
loosely 205
2nd 205
ano 205
magazine 205
dialogs 204
decl@@ 204
law@@ 204
vulner@@ 204
neat 204
ira 204
holly 204
prop@@ 204
net 204
ateful 204
groups 204
camerawork 204
britain 204
chs 204
scul@@ 204
khan 204
ught 204
un 204
noise 204
oneliners 203
enhan@@ 203
shak@@ 203
pride 203
stur@@ 203
marri@@ 203
shaw 203
intention 203
sia 203
performan@@ 203
spare 203
spectac@@ 203
glenn 203
wen@@ 203
tender 203
people@@ 203
func@@ 203
passes 203
experi@@ 203
icial 203
bears 203
bour@@ 203
dvds 203
efs 203
wonders 202
communic@@ 202
engaged 202
billi@@ 202
times@@ 202
hem@@ 202
phili@@ 202
creators 202
cake 202
vis 202
empa@@ 202
strip 202
ris@@ 202
infec@@ 202
wers 202
40s 202
deca@@ 202
compet@@ 202
conserv@@ 202
commit 202
territory 202
carpenter 201
foster 201
illian 201
dig 201
believing 201
tube 201
inn 201
phenomen@@ 201
flic@@ 201
phys@@ 201
spoiled 201
perfection 201
eff@@ 201
antic@@ 201
scripted 201
poe@@ 201
behavi@@ 201
heroic 201
inspector 201
carn@@ 201
30s 201
adri@@ 200
rene 200
shower 200
thirty 200
directorial 200
business@@ 200
elderly 200
rol 200
hbo 200
photographed 200
sage 200
month 200
runn@@ 200
boredom 200
finger 200
armed 200
heat 200
threat 200
stole 200
musc@@ 200
poster 200
beating 200
horrendous 200
rewar@@ 200
rick 200
wack@@ 200
tricks 200
fi 200
oooo@@ 200
oner 199
currently 199
tured 199
dig@@ 199
interaction 199
oven 199
handful 199
messages 199
breasts 199
then@@ 199
discover@@ 199
cycle 199
ignored 199
piano 199
staff 199
hoped 199
spiritual 199
inexplic@@ 199
loser 199
must@@ 199
carefully 199
sidney 199
christ 199
tier 198
noble 198
perfec@@ 198
helicop@@ 198
rs 198
reluct@@ 198
reallife 198
officers 198
ting@@ 198
corpse 198
ay@@ 198
admittedly 198
characterization 198
cheek 198
pleasantly 198
appalling 198
colour 198
succee@@ 198
24 198
snake 198
response 198
argue 198
colla@@ 198
accused 198
comedi@@ 198
bury 197
astoni@@ 197
associated 197
genres 197
pushed 197
wrestling 197
theyll 197
restaurant 197
mly 197
audio 197
likeable 197
flam@@ 197
insul@@ 197
ground@@ 197
ela 197
racial 197
lil@@ 197
stanley 197
satisfied 197
dding 197
unintentionally 196
liking 196
role@@ 196
porno@@ 196
prevent 196
oms 196
gothic 196
town@@ 196
dresses 196
toilet 196
lawrence 196
cardboard 196
travels 196
closeups 196
scra@@ 196
blan@@ 196
gue@@ 196
12@@ 196
intent 196
charismatic 196
pleased 196
custom@@ 196
superbly 196
watches 196
ship@@ 196
disc 196
ross 196
allowing 196
heartw@@ 196
ordin@@ 196
affected 195
feel@@ 195
grandfather 195
rys 195
tremendous 195
investigation 195
indul@@ 195
ocean 195
hypo@@ 195
connery 195
focu@@ 195
kni@@ 195
alls 195
dad@@ 195
seas@@ 195
brazil 195
argument 195
passen@@ 195
airport 195
neighborhood 195
fab@@ 195
hanks 195
body@@ 195
apocalyp@@ 195
trade 194
repe@@ 194
segments 194
button 194
killings 194
blowing 194
wre@@ 194
floo@@ 194
ama 194
incoherent 194
laws 194
bride 194
luckily 194
complic@@ 194
mit 194
merit 194
flawless 194
ara 194
conceived 194
gad@@ 194
rich@@ 194
simul@@ 194
titanic 194
jake 193
jumping 193
horrid 193
bum 193
reha@@ 193
wes 193
distant 193
tele@@ 193
daring 193
rive@@ 193
fifteen 193
motivation 193
ego 193
reck@@ 193
matthew 193
tax@@ 193
delivering 193
concep@@ 193
vig@@ 193
subsequent 193
remin@@ 193
signs 193
presumably 193
del 193
emper@@ 193
amanda 193
subjects 193
ske@@ 193
luci@@ 193
freeman 193
devoid 193
surrounded 193
locks 193
symbolism 193
rad 193
fren@@ 193
possibility 193
gom@@ 193
punk 193
connect 192
tram@@ 192
sligh@@ 192
extended 192
lest 192
guilt 192
drops 192
highlights 192
yo 192
lit 192
arrive 192
swa@@ 192
pink 192
adop@@ 192
jon@@ 192
mitchell 192
represents 192
communi@@ 192
definite 192
gabri@@ 192
complex@@ 192
16@@ 192
inevitable 192
reactions 192
lon 192
admire 192
detailed 192
portra@@ 192
bands 192
dani@@ 192
ady 191
concerning 191
rious 191
clues 191
extr@@ 191
requires 191
trite 191
rede@@ 191
possessed 191
backdrop 191
chor@@ 191
electri@@ 191
bic 191
freak 191
pitt 191
wishes 191
first@@ 191
buried 191
determin@@ 191
aling 191
identi@@ 191
dian 191
stiff 191
carl 191
wast@@ 191
worried 191
lifel@@ 191
jeremy 191
cassave@@ 191
gues@@ 190
areas 190
draws 190
ids 190
web 190
builds 190
returned 190
predict@@ 190
worker 190
esis 190
eerie 190
chicago 190
thar@@ 190
dust 190
holy 190
contrary 190
semi@@ 190
traveling 190
draw@@ 190
zen 190
distingu@@ 190
demands 190
pha@@ 190
pub@@ 190
realise 190
hudson 190
materi@@ 190
vague 190
sso 190
swor@@ 190
tiv@@ 190
griff@@ 190
generous 190
broadcast 190
sures 190
camer@@ 190
lucy 190
repu@@ 190
jew@@ 189
brilliance 189
vey 189
what@@ 189
sian 189
phe@@ 189
fulci 189
distance 189
credited 189
enties 189
regu@@ 189
winds 189
omic 189
yester@@ 189
hamil@@ 189
offering 189
receive 189
sub 189
did@@ 189
promin@@ 189
misses 189
sanity 189
fix 189
ular 189
deman@@ 189
franci@@ 189
scri@@ 189
aking 189
providing 189
idiots 189
aled 189
thrills 188
miserably 188
altogether 188
gradually 188
curiosity 188
before@@ 188
chers 188
alexander 188
strike 188
airplane 188
doll 188
mustsee 188
ellar 188
fru@@ 188
beaten 188
pie@@ 188
bates 188
analy@@ 188
strikes 188
ingredi@@ 188
apar@@ 188
documentaries 188
commercials 188
poverty 188
occurs 188
projects 188
ware 188
zel 188
aforementioned 188
inser@@ 188
broad 188
pest 188
secret@@ 188
flori@@ 188
wonder@@ 188
elessly 187
chances 187
wondered 187
angeles 187
norman 187
adequate 187
fired 187
andrew 187
lou 187
yi 187
prise 187
matthau 187
orious 187
writes 187
kudos 187
russia 187
serving 187
morality 187
tortured 187
macy 187
spot@@ 187
sement 187
ement@@ 187
os@@ 186
accu@@ 186
comfortable 186
dinosaurs 186
concer@@ 186
entially 186
thed 186
constructed 186
painting 186
kidnap@@ 186
spooky 186
unt 186
das 186
min 186
expect@@ 186
dressing 186
jealous 186
sexually 186
itll 186
secrets 186
lie@@ 186
terr@@ 186
threatening 186
tex@@ 186
dal 186
hip 186
rog@@ 186
aar@@ 186
firm 186
crack@@ 186
mau@@ 186
ddle 186
asts 186
thumbs 185
odd@@ 185
complaint 185
beats 185
nia 185
shining 185
sha 185
forgive 185
prostitute 185
key@@ 185
inju@@ 185
anda 185
terrorist 185
iii 185
divi@@ 185
unbelievably 185
assassin 185
nelson 185
rural 185
goers 185
sulli@@ 185
fam@@ 185
gyp@@ 185
zen@@ 185
gel 185
tos 185
etc@@ 185
tters 185
rd 185
vast 184
combat 184
oria 184
stable 184
ress 184
ists 184
hatred 184
tten 184
editor 184
similar@@ 184
farce 184
gift 184
insulting 184
ridiculously 184
mentality 184
dee 184
charisma 184
butt 184
1999 184
rema@@ 184
humili@@ 184
rap@@ 184
hysterical 184
cared 184
primarily 184
nel@@ 184
tally 184
staged 184
oscar@@ 184
houses 184
sidekick 183
specially 183
investigate 183
baf@@ 183
look@@ 183
bath 183
brav@@ 183
evident 183
arily 183
biography 183
carto@@ 183
goal 183
aimed 183
artic@@ 183
glasses 183
gigg@@ 183
escaped 183
max@@ 183
panic 183
anyways 183
sers 183
causing 183
undoub@@ 183
hart 183
chaos 183
ef 183
explosions 183
cole 183
plat@@ 183
ranger 183
stom@@ 182
meaningless 182
start@@ 182
resur@@ 182
craig 182
scientific 182
feder@@ 182
isolated 182
cities 182
dign@@ 182
willis 182
ado 182
phony 182
goodness 182
displays 182
disease 182
cried 182
enem@@ 182
tof@@ 182
popcorn 182
invest@@ 182
stereotype 182
warrior 182
secondly 182
occur 182
sincer@@ 182
arrested 182
secu@@ 182
someones 182
desper@@ 182
punish@@ 182
outcome 182
eva 182
executive 182
timeless 182
resembles 182
spring 182
swedish 182
clou@@ 182
funeral 182
stereo@@ 181
bullets 181
laugha@@ 181
veness 181
accomplished 181
frequ@@ 181
rail@@ 181
exposed 181
cameras 181
dorothy 181
reached 181
mess@@ 181
eable 181
frustrated 181
conver@@ 181
synop@@ 181
fears 181
comics 181
interpre@@ 181
zs 181
annoy@@ 181
ito 181
eccentric 181
differences 181
obscure 181
medium 181
ji@@ 181
menacing 181
sable 181
couples 181
duty 181
mansion 181
continued 180
juvenile 180
atro@@ 180
allo 180
lugosi 180
begin@@ 180
swear 180
broad@@ 180
ples 180
linda 180
madefor@@ 180
sad@@ 180
dity 180
stru@@ 180
isra@@ 180
bergman 180
kitchen 180
amoun@@ 180
psychotic 180
school@@ 180
worthless 180
ativity 180
proc@@ 180
brother@@ 180
careers 180
mile 180
models 180
fold 180
baker 180
diane 180
tat@@ 180
dating 180
generic 180
university 180
nightma@@ 180
hypno@@ 179
adams 179
conspiracy 179
tail 179
offended 179
tical 179
nearby 179
guil@@ 179
beh@@ 179
gentle 179
critic 179
ironically 179
frag@@ 179
icing 179
vier 179
agents 179
piti@@ 179
dece@@ 179
winter 179
orders 179
arian 179
guit@@ 179
lyn 179
strictly 179
lab 179
succ@@ 179
trio 179
dys@@ 179
burned 179
devast@@ 179
wives 179
valley 179
ireland 179
conversations 179
staying 178
glu@@ 178
root 178
gha@@ 178
gle@@ 178
rendition 178
haun@@ 178
rooms 178
explicit 178
improved 178
mild 178
yellow 178
sentence 178
notably 178
tones 178
unwatchable 178
solely 178
chain 178
porno 178
digital 178
grey 178
trained 178
overacting 178
elim@@ 178
compu@@ 178
fes 178
metaph@@ 178
feat@@ 178
adole@@ 178
carter 178
sounding 178
lic@@ 178
suited 178
fright@@ 178
wax 178
resolution 177
nerv@@ 177
mafi@@ 177
implausible 177
citizen 177
hh@@ 177
closed 177
proje@@ 177
disjointed 177
jol@@ 177
bleak 177
snu@@ 177
dialogues 177
puppet 177
inson 177
buster 177
cryst@@ 177
sch 177
institu@@ 177
suitable 177
sadness 177
larger 177
chant 177
four@@ 177
satan 177
ji 177
mov@@ 177
angela 177
blues 177
manhattan 177
cup 177
musli@@ 176
thearted 176
sacri@@ 176
stil@@ 176
wait@@ 176
recognition 176
afterwards 176
stronger 176
pushing 176
hamlet 176
ira@@ 176
jim@@ 176
landscape 176
davies 176
ala 176
liberal 176
ingen@@ 176
brains 176
achievement 176
sill@@ 176
persu@@ 176
movements 176
producing 176
limits 176
claire 176
garden 176
unpleasant 176
pin 176
paro@@ 176
recommend@@ 176
tel 176
exaggerated 176
overrated 176
mons 176
nem@@ 176
enormous 176
flies 176
traf@@ 176
compos@@ 176
fice 175
prisoners 175
canada 175
present@@ 175
tell@@ 175
mistress 175
convincingly 175
robbery 175
blur@@ 175
attached 175
juni@@ 175
grow@@ 175
scene@@ 175
mario 175
dist@@ 175
roman 175
gues 175
ince 175
terrifying 175
involve 175
chain@@ 175
translation 175
icient 175
involvement 175
mixture 175
guar@@ 175
buddies 175
coffee 175
bean 175
wannabe 175
ero 175
tire 175
rupt 175
intel@@ 175
carol 174
planning 174
ssions 174
virgin 174
edthe 174
imperson@@ 174
proper@@ 174
rant 174
tial 174
furthermore 174
notes 174
beneath 174
skin@@ 174
celluloid 174
thouse 174
tics 174
appropri@@ 174
subtlety 174
teac@@ 174
plague 174
recognized 174
cook 174
persona 174
sadistic 174
boot 174
remar@@ 174
made@@ 174
complain 174
chess 174
mp 174
lucas 174
elaborate 174
keep@@ 174
wallace 174
alltime 173
wei@@ 173
gib@@ 173
etly 173
estate 173
bear@@ 173
hou@@ 173
spike 173
parti@@ 173
2004 173
pit 173
crack 173
discussion 173
zak@@ 173
loaded 173
acci@@ 173
led@@ 173
perver@@ 173
explosion 173
arrogant 173
dedicated 173
relent@@ 173
greg@@ 173
ident@@ 173
virus 173
lyrics 173
cards 173
gand@@ 173
moon@@ 173
unintenti@@ 172
neg@@ 172
similarly 172
youn@@ 172
bye 172
grot@@ 172
benefit 172
depression 172
1940s 172
regre@@ 172
planned 172
matched 172
margare@@ 172
tag 172
walls 172
voy@@ 172
misunder@@ 172
population 172
puppe@@ 172
open@@ 172
kish 172
survival 172
inventive 172
happ@@ 172
screams 172
remark@@ 172
admi@@ 172
corn@@ 172
rhe@@ 172
dang@@ 171
lot@@ 171
pal 171
atively 171
describes 171
tracy 171
antics 171
salv@@ 171
john@@ 171
vise 171
adel@@ 171
ool 171
exclu@@ 171
backs 171
blank 171
sacrific@@ 171
plea@@ 171
loads 171
ristic 171
explored 171
past@@ 171
sarca@@ 171
franco 171
train@@ 171
prisoner 171
nings 171
enjo@@ 171
spielberg 171
suspici@@ 170
murderous 170
skelet@@ 170
graphed 170
presenting 170
gangsters 170
911 170
meri@@ 170
hyster@@ 170
awful@@ 170
elli 170
martha 170
savage 170
leys 170
fect 170
portion 170
sence 170
spell 170
damage 170
kurt 170
throat 170
phrase 170
edi@@ 170
ai 170
instant 170
atingly 170
achers 170
tunes 170
specifically 170
lifestyle 170
diamond 170
opinions 170
sail@@ 170
species 170
gray 170
carrie 170
thank@@ 170
encing 170
todd 170
twin 170
simplistic 169
owen 169
iss@@ 169
glori@@ 169
formula@@ 169
ert 169
politically 169
versus 169
citi@@ 169
classical 169
slea@@ 169
wise@@ 169
stairs 169
removed 169
everyones 169
overlooked 169
rai 169
disturbed 169
tin 169
weal@@ 169
thou@@ 169
fords 169
streep 169
predec@@ 169
perfor@@ 169
wid@@ 169
either@@ 169
proceedings 169
catholic 169
jazz 169
duo 169
trade@@ 169
poetry 169
dinosa@@ 169
apri@@ 169
scenes@@ 169
dele@@ 169
wis@@ 169
spirited 168
encoura@@ 168
nicole 168
maintain 168
strangers 168
iss 168
method 168
valent@@ 168
mistaken 168
fetched 168
summ@@ 168
ease 168
reaches 168
depressed 168
thering 168
heavy@@ 168
defined 168
pi 168
bitter@@ 168
selfish 168
principal 168
performer 168
cement 168
loyal 168
sloppy 168
motives 168
scores 168
repul@@ 168
neighbor 168
museum 168
warm@@ 168
promises 168
vinc@@ 168
depicts 168
trail 167
negle@@ 167
expressi@@ 167
young@@ 167
ruthless 167
overdone 167
sound@@ 167
represent 167
recy@@ 167
chin@@ 167
vie@@ 167
sophi@@ 167
berg@@ 167
hea@@ 167
seem@@ 167
melo@@ 167
tarantino 167
lifting 167
wound 167
expl@@ 166
intri@@ 166
dney 166
illing 166
thetic 166
need@@ 166
sof@@ 165
kay 165
attitu@@ 164
za@@ 164
opportun@@ 164
overs 163
effor@@ 163
seless 163
afric@@ 163
obse@@ 162
edly 162
gi 162
ail@@ 162
kri@@ 161
kur@@ 161
seful 161
mista@@ 161
benef@@ 160
matic 160
loy@@ 160
carri@@ 160
inev@@ 159
independ@@ 159
langu@@ 159
maj@@ 159
clich@@ 159
sac@@ 158
quir@@ 158
asure 158
ener@@ 157
zz 157
ghty 157
andre@@ 157
incre@@ 157
tionally 156
ont 156
travel@@ 156
toge@@ 156
confu@@ 156
advent@@ 155
fortun@@ 155
euro@@ 155
coherent 155
gin 155
episo@@ 155
dentally 154
streng@@ 154
esome 153
immedi@@ 153
ques 153
dau@@ 153
make@@ 153
evid@@ 153
writ@@ 153
gho@@ 153
surroun@@ 152
aband@@ 152
ditional 152
fashi@@ 152
nur@@ 152
parent 152
fec@@ 152
presi@@ 152
cially 151
wear@@ 151
grat@@ 151
plausible 150
mely 150
gab@@ 150
transl@@ 150
ima@@ 150
week@@ 149
mmer 149
worl@@ 149
cas@@ 149
proble@@ 149
glim@@ 149
ore@@ 149
though@@ 149
dea@@ 148
critic@@ 148
ject 148
ins@@ 148
enjoy@@ 148
abor@@ 148
environ@@ 147
thum@@ 147
writer@@ 147
ope 147
lec@@ 147
dd 146
soul@@ 146
geni@@ 146
ghters 146
ci 146
humor@@ 145
cred@@ 145
inde@@ 145
ept 145
warri@@ 145
fall@@ 145
east@@ 145
dent@@ 144
wash@@ 144
utes 144
drin@@ 144
extre@@ 144
oud 144
ridicul@@ 144
gare@@ 144
cow@@ 144
try@@ 143
yor@@ 143
wall@@ 143
ose 142
allo@@ 141
kenne@@ 141
questi@@ 141
dows 141
solution 141
yn@@ 140
tagon@@ 140
were@@ 140
direct@@ 140
russi@@ 140
imd@@ 140
ander@@ 140
situ@@ 139
esy 138
knowle@@ 138
landscap@@ 138
anal@@ 138
ort 138
hyp@@ 137
bir@@ 137
inste@@ 137
twist@@ 137
ute 137
thered 137
disap@@ 137
partic@@ 137
conventi@@ 137
gover@@ 137
itable 137
ap 136
ural 136
exagger@@ 135
necess@@ 135
dred 135
gry 134
manag@@ 134
near@@ 134
conf@@ 134
tment 134
barbar@@ 134
frank@@ 134
ghter 133
alling 133
davi@@ 133
pred@@ 133
tha 133
butt@@ 133
gely 132
call@@ 132
rober@@ 132
bute 132
claim@@ 132
remember@@ 131
lig@@ 131
gent@@ 131
micha@@ 131
hitch@@ 131
mod@@ 131
anth@@ 131
danger@@ 130
chem@@ 130
gery 130
erie 130
reck 130
pressi@@ 129
rying 128
distur@@ 128
ambi@@ 128
rout@@ 128
pse 128
port 128
luc@@ 128
batt@@ 127
stry 127
curi@@ 126
introduc@@ 126
depend@@ 126
itely 126
paren@@ 126
encoun@@ 125
ign@@ 125
dary 125
prison@@ 125
spoil@@ 125
mitch@@ 124
pressing 124
hus@@ 124
iron@@ 124
kore@@ 124
inspir@@ 124
ousy 124
amer@@ 124
deliver@@ 124
isol@@ 123
seg@@ 123
distri@@ 123
thern 122
ppe@@ 122
ight@@ 122
jeal@@ 122
legen@@ 122
ug@@ 122
nap@@ 122
classi@@ 121
beauti@@ 121
diam@@ 121
inted 121
gir@@ 121
scap@@ 121
occ@@ 121
extra@@ 121
else@@ 120
visible 120
inclu@@ 120
breath@@ 120
wester@@ 119
dialo@@ 119
cry@@ 119
cele@@ 119
eless@@ 119
adver@@ 118
ands 118
ood 118
blon@@ 118
cent 117
sup@@ 117
ington 117
poor@@ 117
relev@@ 116
memor@@ 116
embar@@ 116
admit@@ 116
remem@@ 116
fig@@ 116
unning 116
govern@@ 116
sole@@ 115
stewar@@ 115
essor 115
aga@@ 114
eas@@ 114
span@@ 113
anno@@ 113
univers@@ 113
grou@@ 113
sk 113
obsc@@ 112
emy 112
natur@@ 112
never@@ 112
festi@@ 112
stol@@ 111
vehic@@ 111
eived 111
block@@ 111
pregn@@ 111
sour@@ 111
ouldve 111
holi@@ 110
lesbi@@ 110
sity 110
increas@@ 110
favor@@ 110
recogn@@ 110
vampi@@ 110
ags 110
hope@@ 109
aver@@ 109
acul@@ 109
centr@@ 109
zombi@@ 108
costu@@ 108
ind 107
tedi@@ 107
scenari@@ 107
stitute 107
color@@ 107
stances 107
provo@@ 107
quick@@ 106
eo@@ 106
document@@ 106
simil@@ 106
won@@ 106
compre@@ 106
famili@@ 105
meta@@ 105
ecc@@ 105
exe@@ 104
lars 104
sic 104
does@@ 104
stream 104
spect@@ 103
lowed 103
lier 103
success@@ 103
ole 102
hen 102
corn 102
gram@@ 101
stun@@ 101
initi@@ 101
sheri@@ 100
nei@@ 99
orial 99
deep@@ 99
utter@@ 99
icide 98
evi@@ 98
ror 98
issu@@ 98
awk@@ 97
brilli@@ 97
repet@@ 97
revel@@ 97
sexu@@ 97
presu@@ 97
explan@@ 96
eral 96
herent 96
igno@@ 96
aly 96
amat@@ 96
destru@@ 96
puni@@ 96
jour@@ 96
reas@@ 96
gram 95
diff@@ 95
techno@@ 94
braz@@ 94
chest@@ 94
milit@@ 93
gle 93
circum@@ 93
tremend@@ 93
itious 93
veter@@ 93
rens 92
religi@@ 92
hosp@@ 92
cous@@ 92
ade@@ 92
paran@@ 92
dread@@ 92
oce@@ 92
creat@@ 91
nab@@ 91
beha@@ 91
europe@@ 91
requi@@ 90
worth@@ 90
pop@@ 90
solu@@ 90
adequ@@ 90
lease 90
priv@@ 89
controver@@ 89
ith@@ 89
unti@@ 88
certain@@ 88
chen 88
arious 88
beg@@ 88
kable 88
recomm@@ 87
individu@@ 87
interpret@@ 87
phra@@ 87
cyn@@ 86
ague 86
beau@@ 86
subsequ@@ 86
spective 86
soli@@ 85
stant 85
selves 85
oughly 85
dedic@@ 84
	@@ 84
quest@@ 84
inte@@ 84
faith@@ 83
opini@@ 83
chang@@ 83
ularly 83
remain@@ 82
agger@@ 82
seag@@ 82
superi@@ 82
lear@@ 82
vam@@ 82
base@@ 81
redeem@@ 81
anic 81
actre@@ 81
surpri@@ 81
satur@@ 81
eting 81
naz@@ 81
pression 80
massac@@ 80
itous 80
magnific@@ 79
ctors 79
funn@@ 78
outrage@@ 78
whil@@ 78
flaw@@ 78
marvel@@ 78
crimin@@ 78
avo@@ 77
gge@@ 77
adm@@ 77
od 77
symboli@@ 76
ouses 76
deta@@ 75
sional 75
televi@@ 75
spea@@ 75
bizar@@ 75
produ@@ 74
refre@@ 74
hic 74
grap@@ 74
xious 74
ree 74
coura@@ 74
australi@@ 74
libr@@ 73
dama@@ 73
keat@@ 73
chri@@ 73
usu@@ 73
lawy@@ 72
enge 71
excit@@ 71
offen@@ 71
accor@@ 71
alco@@ 70
chas@@ 70
bility 70
acing 70
raid 70
geous 70
spiel@@ 69
tely 69
tern@@ 69
nis 69
acade@@ 69
eth 69
intellig@@ 69
presen@@ 68
abil@@ 68
goth@@ 68
exer@@ 68
rish 68
trage@@ 68
lew@@ 68
enorm@@ 68
yel@@ 68
subtle@@ 67
zom@@ 67
philosop@@ 67
treat@@ 67
singly 67
inventi@@ 67
alities 66
cious 65
intellec@@ 65
comed@@ 65
seu@@ 65
visu@@ 65
fiel@@ 65
rubb@@ 64
conspir@@ 64
ongly 64
poign@@ 64
sionally 63
michel@@ 63
arrog@@ 62
strugg@@ 62
tayl@@ 62
nam 62
magaz@@ 62
ason 62
arre@@ 61
inspi@@ 61
ord 61
inno@@ 61
jap@@ 61
ultim@@ 61
intro@@ 61
tarantin@@ 61
viet@@ 61
therine 61
cof@@ 60
sophistic@@ 60
contempor@@ 60
elin@@ 60
innoc@@ 60
listic 60
thes 60
hoff@@ 60
psy@@ 59
eries 59
ister 59
zan 59
trem@@ 59
oved 59
ral@@ 58
ripo@@ 58
tural 58
phy 58
whel@@ 58
involv@@ 58
rix 58
neigh@@ 57
offic@@ 57
embarra@@ 57
commerci@@ 57
sus 57
victim@@ 56
unbeliev@@ 56
fically 55
ongs 55
ould 55
dson 55
relation@@ 55
ridic@@ 54
mexic@@ 54
techn@@ 54
atra 54
appear@@ 53
conner@@ 53
obvi@@ 53
existent 53
ried 53
conne@@ 53
remini@@ 52
flyn@@ 52
camera@@ 52
atmosp@@ 52
mare 51
spiritu@@ 51
messa@@ 51
tot@@ 51
rical 51
wee@@ 51
elabor@@ 51
calyp@@ 50
ludicr@@ 50
scienti@@ 50
explic@@ 49
meaning@@ 49
forgett@@ 49
eed 49
pretenti@@ 49
ingu@@ 48
mg@@ 48
sier 48
iso@@ 48
avail@@ 47
pstick 47
pire 47
misca@@ 47
birth@@ 47
bore@@ 47
fee 47
weap@@ 46
propag@@ 46
whatso@@ 46
atters 46
staf@@ 46
op 45
canadi@@ 45
figu@@ 45
achi@@ 45
studi@@ 44
restaur@@ 44
numer@@ 44
jose@@ 44
formul@@ 43
scious 43
amateu@@ 43
hic@@ 43
ruth@@ 43
neighbor@@ 43
convinc@@ 43
osity 43
ext 43
import@@ 42
categ@@ 42
vide@@ 42
grit@@ 42
ig 42
they@@ 41
vent 41
bey@@ 41
fasc@@ 41
brief@@ 41
noon 40
forge@@ 40
sovi@@ 40
bery 39
oppos@@ 39
phenom@@ 39
osc@@ 39
skel@@ 38
lugo@@ 38
anci@@ 38
ander 38
curren@@ 38
japan@@ 38
unfortun@@ 38
loid 38
fore 38
ird 37
nec@@ 37
horrend@@ 37
stanwy@@ 36
philo@@ 36
espe@@ 36
credi@@ 36
incredi@@ 36
retar@@ 36
sadi@@ 35
toil@@ 35
princ@@ 35
inely 35
dnt 35
antin@@ 35
 @@ 35
ip@@ 34
meth@@ 34
wannab@@ 34
betw@@ 34
blea@@ 34
eliza@@ 33
expen@@ 33
califor@@ 33
juven@@ 33
mass@@ 33
dless 33
commer@@ 33
mst3@@ 32
card@@ 32
busin@@ 32
dise@@ 32
territ@@ 32
franch@@ 32
further@@ 32
cise 31
favour@@ 31
norm@@ 31
secur@@ 31
pers@@ 31
teenag@@ 31
luck@@ 30
redem@@ 30
ovi@@ 30
peop@@ 30
soldi@@ 30
provi@@ 29
atmospher@@ 29
inspe@@ 29
hallowe@@ 29
overthe@@ 29
matthe@@ 29
dracul@@ 29
vil 29
lyric@@ 29
lloy@@ 28
toni@@ 28
dio 28
christop@@ 28
cellu@@ 28
follo@@ 28
gratu@@ 28
remo@@ 27
nolds 27
reve@@ 26
matth@@ 26
gree 26
gaz@@ 26
noneth@@ 26
fabul@@ 26
nd 26
genu@@ 26
minis@@ 25
obno@@ 25
suppose@@ 25
derly 25
glen@@ 25
cinder@@ 25
aspe@@ 24
seum 24
onelin@@ 24
tril@@ 24
popu@@ 24
enty 24
bage 24
vili@@ 23
ghting 23
elec@@ 23
techni@@ 23
absolu@@ 23
when@@ 22
suther@@ 22
rey@@ 22
soun@@ 22
stem 22
charis@@ 21
midd@@ 21
theless 21
nowa@@ 21
funni@@ 21
wwi@@ 21
ester@@ 21
ante@@ 20
manhatt@@ 19
suppo@@ 19
hatt@@ 19
istry 19
repeat@@ 19
phen@@ 18
chall@@ 18
jess@@ 18
semble 18
osa@@ 18
tually 18
kev@@ 17
eff 17
rible 17
ssell 16
asle@@ 16
exact@@ 16
attemp@@ 16
reland 15
convers@@ 15
bene@@ 15
pover@@ 15
apparen@@ 15
lywood 15
devel@@ 15
hallo@@ 14
snt 14
stren@@ 13
trilog@@ 13
controversi@@ 13
orm@@ 13
jenni@@ 13
perha@@ 13
invol@@ 13
marily 12
doro@@ 12
beit 12
thear@@ 12
dren 12
formu@@ 12
hundre@@ 12
thur 11
wro@@ 11
mst@@ 11
rend@@ 11
dubb@@ 11
protagon@@ 10
alian 10
proceed@@ 9
thous@@ 9
came@@ 9
  9
previ@@ 9
envir@@ 9
sunder@@ 9
medioc@@ 8
pared 8
sudd@@ 8
youl@@ 7
eive 7
exic@@ 7
imal 7
entric 7
charact@@ 7
opin@@ 7
nop@@ 7
disjo@@ 6
catho@@ 6
achel 6
save@@ 6
nold 6
afore@@ 6
horr@@ 5
athan 5
chore@@ 5
glas 4
redi@@ 4
frien@@ 4
stantly 4
attem@@ 4
atmo@@ 3
icop@@ 3
austr@@ 3
ludic@@ 2
psychi@@ 2
relu@@ 2
enthu@@ 2
carpen@@ 2
diffic@@ 2
resta@@ 2
presuma@@ 2
forev@@ 2
portun@@ 1
