#version: 0.2
t h
i n
th e</w>
a n
e r
i s</w>
r e
in g</w>
o u
a r
an d</w>
e n
o n
e r</w>
i t
o r
a l
o f</w>
t o</w>
s t
e d</w>
e s</w>
i l
a t</w>
a t
a s</w>
l y</w>
i n</w>
a c
o n</w>
w h
i t</w>
o v
o m
o r</w>
s t</w>
e n</w>
i c
a n</w>
e l
th is</w>
r o
th at</w>
t i
c h
b e
l i
s h
e v
n o
l e</w>
d i
s e
b u
h a
m ov
th e
r i
v e</w>
l o
m a
s e</w>
l e
mov i
f il
a l</w>
w as</w>
a m
s u
s i
a b
w it
u n
wit h</w>
f or</w>
d e
movi e</w>
l a
bu t</w>
on e</w>
er e</w>
ac t
ou t</w>
o o
k e</w>
s c
r a
g h
fil m</w>
t s</w>
o l
c om
p e
ar e</w>
al ly</w>
u r
er s</w>
no t</w>
en t</w>
y o
al l</w>
b e</w>
yo u</w>
ou l
p o
e x
e s
i r
s o</w>
c h</w>
c e</w>
e m
w a
h is</w>
c a
it s</w>
ha ve</w>
s om
g e
th er</w>
m e</w>
h e</w>
d o
i s
s a
o p
at i
oul d</w>
c on
f or
t a
t o
b y</w>
m o
p er
w or
f e
j u
ou n
v i
d s</w>
t er</w>
a s
v er
f u
n e
m u
t r
the y</w>
h i
a g
f ro
li ke</w>
d e</w>
wh o</w>
a d</w>
n t</w>
fro m</w>
gh t</w>
t er
p re
g h</w>
q u
h o
in g
th ing</w>
oo d</w>
or e</w>
il l</w>
m an
a d
h er</w>
ev er</w>
b o
p ro
ju st</w>
ch ar
s p
ab out</w>
sh o
i f</w>
h as</w>
wh at</w>
g u
st or
som e</w>
f a
w at
y s</w>
ou gh</w>
k ing</w>
th ere</w>
t ed</w>
ti on</w>
c i
an t</w>
i r</w>
a p
g o
el l</w>
ou s</w>
g ood</w>
t e
char act
m ore</w>
j o
re c
m y</w>
ver y</w>
f in
wh en</w>
g re
d u
t w
t h</w>
p la
k s</w>
u p</w>
ev en</w>
g i
r u
o ther</w>
t ing</w>
m e
e ar
ic h</w>
w n</w>
p ar
lo o
i m
on s</w>
ab le</w>
ti me</w>
d er
a r</w>
it y</w>
n o</w>
s s</w>
en t
stor y</w>
e p
wa y</w>
ge t</w>
w ould</w>
sh e</w>
a u
ati on</w>
ev er
at e</w>
mo st</w>
r e</w>
sc en
u se</w>
g e</w>
o f
wh ich</w>
en d</w>
am e</w>
ou r</w>
on ly</w>
fil m
ac k</w>
re ally</w>
se e</w>
the ir</w>
m in
som e
l u
a f
m an</w>
w ere</w>
c an</w>
ha d</w>
u l
no w</w>
on t</w>
it e</w>
d y</w>
d a
lo t</w>
on g</w>
s el
p p
l ov
p a
m i
f i
e st
t ur
t y</w>
w ell</w>
f ir
w i
fu l</w>
s er
d ing</w>
th an</w>
w e</w>
s ed</w>
es s</w>
d o</w>
e l</w>
y ing</w>
ho w</w>
mu ch</w>
oun d</w>
ca use</w>
i d</w>
m ar
c re
il l
en ce</w>
pe op
di rec
p l
be en</w>
w ill</w>
k es</w>
b i
r it
le a
b ad</w>
th in
gre at</w>
in to</w>
al so</w>
be cause</w>
t ra
peop le</w>
k e
re d</w>
el l
c u
n i
ar d</w>
f e</w>
b le</w>
d ont</w>
fir st</w>
ic e</w>
hi m</w>
h u
g in
ma ke</w>
i es</w>
v es</w>
h e
an y</w>
e ly</w>
an y
or s</w>
s si
i c</w>
ma de</w>
th en</w>
w s</w>
el i
d er</w>
ing s</w>
th r
at ed</w>
ou r
r an
movi es</w>
wh ere</w>
in ter
k ed</w>
t le</w>
c o
w e
the m</w>
wat ch
d ed</w>
film s</w>
p u
c ould</w>
d nt</w>
al l
s pe
to o</w>
af ter</w>
c t</w>
vi e
al i
l it
charact ers</w>
ol d</w>
st ar
en ti
ac e</w>
il e</w>
b l
en ts</w>
t e</w>
thin k</w>
in e</w>
s on</w>
f f
p r
v ing</w>
com m
st u
man y</w>
wat ch</w>
ic al</w>
un n
e t</w>
th er
h or
th ough</w>
po in
ov er
sel f</w>
ov er</w>
se en</w>
act ing</w>
be ing</w>
tw o</w>
si on</w>
a m</w>
m on
n ever</w>
charact er</w>
p lot</w>
com p
re n
ti m
di d</w>
p or
an d
lov e</w>
s o
be t
g r
c es</w>
be st</w>
lit tle</w>
b r
p h
k now</w>
sho w</w>
li fe</w>
ar y</w>
u s</w>
ex c
an ce</w>
s s
c k</w>
e f
ac t</w>
p ri
f ri
o se</w>
at s</w>
tr u
or i
g ra
1 9
s h</w>
g en
t ri
do es</w>
i m</w>
ag e</w>
h ere</w>
wh ile</w>
am er
ic k</w>
y our</w>
of f</w>
at t
y ed</w>
le ss</w>
p i
su r
bet ter</w>
c ar
ever y
m ent</w>
direc t
g o</w>
u ally</w>
st ill</w>
t al
it i
an s</w>
il y</w>
ag a
per for
the se</w>
ou s
scen e</w>
sa y</w>
fu l
r y</w>
se em
e d
ta in
pro b
du c
c la
st e
p s</w>
wh y</w>
scen es</w>
b er
b ack</w>
s en
h er
w rit
su ch</w>
com e</w>
re s</w>
ha pp
w ar
some thing</w>
b eli
sc re
si m
ne w</w>
t en</w>
ur e</w>
ou ght</w>
t ly</w>
se e
y ear
s ing</w>
f am
g ir
re al</w>
an g
s in
wh o
sh ould</w>
thr ough</w>
da y</w>
f unn
at ing</w>
th ose</w>
p le</w>
ch e
w om
in d</w>
m at
lo w</w>
l es</w>
ab ly</w>
in t
wor k</w>
sc ri
o b
for e</w>
e st</w>
d re
pre t
perfor man
watch ing</w>
fe c
act ors</w>
funn y</w>
u t
p t</w>
m em
do es
j e
beli ev
k ill
d r
does nt</w>
un der
di dnt</w>
la u
f l
in c
st r
year s</w>
h ar
com e
wi th
en jo
on al</w>
act ually</w>
st er</w>
an other</w>
is h</w>
tim es</w>
y oun
ma kes</w>
loo k</w>
be fore</w>
ac h</w>
inter est
wa ys</w>
k i
d ic
st er
go ing</w>
h el
no thing</w>
wor l
fin d</w>
w ing</w>
m is
s ame</w>
ever y</w>
i ous</w>
s es</w>
y p
direct or</w>
i l</w>
or t</w>
sh i
ri ght</w>
fe w</w>
b ro
h ol
t re
par t</w>
s y
il li
di ff
su b
ori gin
t ic
n ing</w>
do wn</w>
r or</w>
1 0</w>
b oo
ho w
tur e</w>
k no
v o
c ol
b er</w>
e en</w>
i ve</w>
ca st</w>
th ats</w>
a w
c ant</w>
ac tion</w>
d es</w>
c ra
0 s</w>
s ol
com es</w>
h ear
comp le
aga in</w>
w an
pro duc
y ou
si c</w>
th ings</w>
l y
ous ly</w>
go t</w>
w on
ac k
g a
v ed</w>
qu ite</w>
c er
te ly</w>
su re</w>
w ant</w>
p ic
pret ty</w>
es s
re l
in v
en ds</w>
c in
f o
b a
en s</w>
worl d</w>
c l
d d
seem s</w>
ta ke</w>
n u
al s</w>
ar ound</w>
al ity</w>
youn g</w>
gi ve</w>
re e</w>
amer ic
ti c</w>
st s</w>
f act</w>
b or
of f
ch il
n s</w>
st ic</w>
hor ror</w>
v e
bo th</w>
si de</w>
ex pe
w er</w>
how ever</w>
l at
bi g</w>
s m
ge ts</w>
th ought</w>
d ly</w>
en ough</w>
ap pe
con t
be tw
n ed</w>
h es</w>
betw een</w>
ma y</w>
sa w</w>
o wn</w>
l ong</w>
ati ons</w>
t ting</w>
be au
with out</w>
b it</w>
s ch
re as
h ard</w>
e p</w>
poin t</w>
en ter
interest ing</w>
d one</w>
i ma
b ar
st a
n a
di s
origin al</w>
t u
m y
al ways</w>
st an
come dy</w>
i de
c lo
al most</w>
e y</w>
oo l</w>
mu sic</w>
l in
at ely</w>
is nt</w>
mu st</w>
m s</w>
ic ally</w>
g s</w>
ther es</w>
c k
e i
f ol
ser ies</w>
gu y</w>
y e
c or
d ev
ci al</w>
t yp
se qu
ef fec
h al
tr y</w>
diff er
who le</w>
s on
cin em
as ed</w>
ou t
ar ly</w>
ro le</w>
l ine</w>
c oun
pla y</w>
en g
lea st</w>
ut es</w>
l ed</w>
h om
t v</w>
di sa
ma king</w>
en d
m om
al o
la st</w>
en ding</w>
n ess</w>
c our
in s</w>
t un
scri pt</w>
per i
fa r</w>
p ol
f t</w>
ep t</w>
oul dnt</w>
fe el</w>
pr ov
c an
mi ght</w>
gh t
m or
min utes</w>
prob ably</w>
sin ce</w>
b re
k ind</w>
any thing</w>
c c
ri ble</w>
es pe
ing ly</w>
fam ily</w>
au di
jo h
a way</w>
w r
pi e
g er</w>
el s</w>
y es</w>
s po
d ar
at h</w>
ma y
se t</w>
ti ve</w>
ful ly</w>
f ound</w>
c t
performan ce</w>
th ers</w>
y et</w>
dr am
enter tain
ra ther</w>
pre s
ci ally</w>
su p
wor st</w>
d v
n er</w>
w al
pla yed</w>
h op
re ad
s nt</w>
gir l</w>
al e</w>
f re
e t
di alo
ati ve</w>
any one</w>
m ur
p lo
fu n</w>
e ach</w>
wom an</w>
beau ti
ur ing</w>
h ou
f f</w>
re ali
c ou
bu d
v en</w>
loo king</w>
t it
c le
sur pri
ma in</w>
s k
ha ving</w>
sen se</w>
al though</w>
wor th</w>
believ e</w>
en ing</w>
se con
r om
hi m
scre en</w>
is o
won der
tr ying</w>
cour se</w>
k er</w>
on es</w>
con si
w ood</w>
espe cially</w>
ep iso
la r</w>
l ing</w>
l s</w>
ca p
gra ph
sho ws</w>
a k</w>
pl ace</w>
act or</w>
pu t</w>
st o
po ssi
go es</w>
fri end</w>
boo k</w>
ou gh
g ar
every thing</w>
may be</w>
re nt</w>
to ge
ac c
bo dy</w>
m ent
b ly</w>
at es</w>
differ ent</w>
st and</w>
re comm
r ic
lo w
dv d</w>
ch o
an e</w>
c ame</w>
ch an
prob le
g g
it u
u sed</w>
sim p
ni ght</w>
fe ct</w>
loo ks</w>
st re
d ra
americ an</w>
0 0
toge ther</w>
sc i
u su
wa snt</w>
ti ons</w>
watch ed</w>
st y
lo c
er i
sup po
gu e</w>
m en</w>
reas on</w>
hi gh
disa p
on ce</w>
wa st
k en</w>
it ing</w>
th ree</w>
un i
d an
pla ys</w>
de ci
ac h
some one</w>
ob vi
be gin
i g
hu m
z e</w>
in ste
tru e</w>
fa v
effec ts</w>
jo b</w>
t t
re vie
m en
sh es</w>
mon ey</w>
c amer
f el
wa r</w>
ta kes</w>
exc ell
f an
hou se</w>
re st</w>
pie ce</w>
ex t</w>
sa id</w>
de fin
ar s</w>
d uring</w>
u p
sol u
n or
a k
le t</w>
lat er</w>
see m</w>
gen er
st i
en ces</w>
inste ad</w>
f ran
re ly</w>
ati on
m ic
every one</w>
joh n</w>
con v
shi p</w>
beauti ful</w>
f la
ver sion</w>
bu r
see ing</w>
ic i
b ra
to t
c ri
sh ed</w>
lau gh
spe cial</w>
l and</w>
sho t</w>
or y</w>
g er
d eli
re mem
po s
i st</w>
inc lu
n at
him self</w>
por tra
c all
audi ence</w>
le ft</w>
se x
iti on</w>
the m
an s
su per
inv ol
he ad</w>
s il
fri ends</w>
excell ent</w>
ic s</w>
s ing
it ed</w>
ide a</w>
am es</w>
ta in</w>
m er
st ru
st ar</w>
min d</w>
bl ack</w>
p ul
w er
p as
ar t</w>
par tic
simp ly</w>
ul t</w>
wi fe</w>
fa ther</w>
k a
ne y</w>
for tun
ati c</w>
re ad</w>
po or</w>
z ing</w>
fe at
re v
c ted</w>
d ri
you re</w>
bud get</w>
di sc
a v
en ded</w>
hi gh</w>
f an</w>
att em
a ma
f r
b ri
c lu
c e
si g
ch ri
n ice</w>
comple tely</w>
hol ly
ro o
tur n</w>
de ath</w>
al ong</w>
v al
ab solu
p id</w>
d ou
f ace</w>
vi de
ye ar</w>
hal f</w>
ki ds</w>
su cc
em o
el se</w>
l on
gi ven</w>
h an
secon d</w>
z ed</w>
s oun
ir e</w>
su l
w ard</w>
de ad</w>
sh ort</w>
i st
da ys</w>
pa ren
il i
hel p</w>
for m
em ent</w>
n y</w>
c am
t able</w>
bor ing</w>
cla ssi
disap poin
un ti
l an
u al</w>
b loo
lea se</w>
i on</w>
the y
ent ly</w>
is m</w>
c r
hom e</w>
li gh
ne ed</w>
produc tion</w>
enjo y</w>
bo y</w>
i d
to p</w>
de ser
an im
vi ol
f ic
unti l</w>
t ell
graph y</w>
o s</w>
on d</w>
tru ly</w>
cou ple</w>
ex am
w in
classi c</w>
ei ther</w>
wr ong</w>
pre ssi
c ed</w>
performan ces</w>
e as
di es</w>
recomm end</w>
holly wood</w>
sch ool</w>
ge tting</w>
stu pid</w>
m il
n ext</w>
en ed</w>
star t</w>
wom en</w>
t ell</w>
ic k
g ro
ful l</w>
c op
de sp
the at
s or
f oo
read y</w>
ar ious</w>
sty le</w>
it ely</w>
ar i
l l</w>
c tion</w>
remem ber</w>
ex peri
c ent</w>
per ha
under stand</w>
hu man</w>
w ers</w>
camer a</w>
perha ps</w>
fe el
ima gin
ke ep</w>
ca se</w>
aw ful</w>
t on</w>
st ran
ne e
aga in
se x</w>
g es</w>
st ra
li ght</w>
pla ying</w>
v ic
ter rible</w>
o c
b el
w ell
mom ents</w>
lin es</w>
in ed</w>
h on
c ro
wonder ful</w>
dev el
ca re
t oo
o thers</w>
ad v
mo ther</w>
u e</w>
th y</w>
s ever
su pp
t ou
ch a
th ro
v il
of ten</w>
en se</w>
defin itely</w>
br illi
n ame</w>
me an</w>
per fect</w>
s at
di e</w>
star s</w>
writ ten</w>
n on
vide o</w>
it self</w>
ser i
per son</w>
dram a</w>
do ing</w>
h un
tur ns</w>
li ked</w>
sp ir
gi ves</w>
cer tain
b b
sm all</w>
n ov
gu ys</w>
com ing</w>
act re
it ies</w>
b as
k ers</w>
ex tre
ber t</w>
p ed</w>
li ve</w>
absolu tely</w>
mu s
sh a
c ouldnt</w>
li sh</w>
il ity</w>
w ent</w>
s ort</w>
fin ally</w>
c at
oo d
ear ly</w>
dialo gue</w>
le y</w>
un fortun
il s</w>
cre di
ti on
episo de</w>
fel t</w>
fan ta
certain ly</w>
l ar
h il
b ack
ir d</w>
stor y
w ed</w>
lo st</w>
lo g
st ing</w>
je ct</w>
li m
i se</w>
f all
n e</w>
call ed</w>
me di
di st
suppo sed</w>
lov ed</w>
fav or
p e</w>
f un
e f</w>
be come</w>
over all</w>
f er
por t
s la
c ur
entertain ing</w>
tit le</w>
m ing</w>
b ased</w>
nu m
le ar
thr ough
hop e</w>
enti re</w>
qu est
p ur
b and</w>
possi ble</w>
wor se</w>
sever al</w>
unn ing</w>
el e
on ed</w>
ac ks</w>
su sp
t en
kno wn</w>
n a</w>
pic ture</w>
o h</w>
tri es</w>
again st</w>
l ev
cre d
tot ally</w>
y s
t t</w>
v er</w>
y oul
e u
c rit
wast e</w>
t or
youl l</w>
lau gh</w>
pl an
wan ted</w>
u sing</w>
proble m</w>
me an
desp ite</w>
dar k</w>
devel op
d in
wh ite</w>
thr ill
begin ning</w>
s ound</w>
f ans</w>
m es
cinem a</w>
n am
col le
fin al</w>
sh ing</w>
movi e
de p
p sy
ev il</w>
le ad</w>
direc tion</w>
b an
m r</w>
at o
dre n</w>
to wn</w>
d au
seem ed</w>
chil dren</w>
rel ation
gir ls</w>
sel ves</w>
g ame</w>
qu e</w>
d ent</w>
th an
exam ple</w>
gr ou
un der</w>
c are</w>
g ge
r ing</w>
be comes</w>
w ont</w>
s y</w>
al ready</w>
hum or</w>
d a</w>
li ves</w>
e se</w>
be h
wor ks</w>
mic ha
in di
z y</w>
pr om
gre at
gu ess</w>
per son
l er</w>
through out</w>
st ly</w>
p ho
qu ality</w>
s we
d en
u res</w>
writ ing</w>
w il
wan ts</w>
sh oo
gh ter</w>
2 00
f em
fin e</w>
consi der
c ru
unfortun ately</w>
am s</w>
typ e</w>
t on
my ster
m m
c ts</w>
i e</w>
they re</w>
no t
in t</w>
im port
f le
st ers</w>
f ac
an no
h and
s ou
s itu
vil la
vie w</w>
man ag
ma j
ss es</w>
do cu
hi story</w>
b at
j a
our s</w>
sc ap
ga ve</w>
c ul
bu il
pre dic
k ill</w>
u m
kill er</w>
i ght</w>
w n
usu al</w>
micha el</w>
ama zing</w>
l ate</w>
enjo yed</w>
hor rible</w>
fl ick</w>
st ri
war ds</w>
roo m</w>
par ts</w>
c en
so ci
cont in
g l
tr ack</w>
qu i
le ad
ch ing</w>
a p</w>
to m</w>
favor ite</w>
pa st</w>
s sed</w>
direc ted</w>
da vi
bre a
beh ind</w>
ru n</w>
st and
b rit
b ad
hear t</w>
ca r</w>
kill ed</w>
d ge</w>
th s</w>
1 0
ti v
ch ang
ke y</w>
man s</w>
te ch
int el
p le
e yes</w>
v ir
re li
c ity</w>
spo il
in credi
si ve</w>
brilli ant</w>
st ed</w>
ad m
b s</w>
mat ter</w>
le ts</w>
d ru
some times</w>
me ly</w>
pre ci
obvi ously</w>
h our</w>
w ish</w>
k in
gen re</w>
expe ct</w>
ex plo
li e</w>
b lo
de cent</w>
vie wer</w>
b ru
fi ght</w>
ri dic
star ts</w>
t el
so on</w>
ti onal</w>
loo ked</w>
wh at
re le
sc o
en tion</w>
gr ound</w>
do m</w>
stu ff</w>
them selves</w>
h it
sa ys</w>
dou b
ag o</w>
chil d</w>
ch es</w>
hear d</w>
ro ss</w>
b ed</w>
n er
rom an
k y</w>
ta king</w>
e ts</w>
bu l
actre ss</w>
t ar
pla in</w>
my self</w>
gi c</w>
c ks</w>
pl ac
p er</w>
ov e</w>
grou p</w>
fol lo
thin king</w>
n ar
chri st
scre en
p ac
mu l
ridic ul
ev e</w>
e k</w>
sto p</w>
feel ing</w>
hu s
c y</w>
wh e
l ack</w>
o k</w>
cinem ato
str ong</w>
ul arly</w>
sim il
cu t</w>
el ess</w>
t old</w>
h and</w>
ef for
too k</w>
c li
bu n
believ able</w>
b ab
d on</w>
exc ept</w>
high ly</w>
happ ens</w>
om in
li g
tr ans
p en
sy m
k id</w>
h ell</w>
p au
e y
ma ster
z om
stor ies</w>
docu ment
pp ed</w>
du m
c tive</w>
extre mely</w>
d ers</w>
p at
n ic
g ri
lea ve</w>
it h</w>
d on
est er
her o</w>
ta ge</w>
experi ence</w>
wor d</w>
can not</w>
sp i
ar ti
pol ice</w>
u lar</w>
y our
clo se</w>
wi se</w>
mo der
vi su
ne c
partic ularly</w>
comple te</w>
op in
mom ent</w>
ma in
bloo d</w>
at or</w>
re sul
mar ri
w ouldnt</w>
pe t
li ving</w>
d ro
iti ve</w>
ma kers</w>
go d</w>
enjo y
ma g
inclu ding</w>
dau ghter</w>
sc ore</w>
a h</w>
zom bi
mem or
em ents</w>
tur ned</w>
prov i
sa ve</w>
g ran
fa ir
invol ved</w>
im pressi
p ing</w>
won der</w>
b ers</w>
ta ken</w>
supp or
viol ence</w>
pol it
b all</w>
o g
et c</w>
happ en</w>
any way</w>
ke ep
f ar
ser ious</w>
attem pt</w>
ch ance</w>
si on
reali stic</w>
j ames</w>
ap pro
or der</w>
m el
ch ed</w>
ex act
chan ge</w>
sim ple</w>
ne i
er a</w>
stan ding</w>
ac ross</w>
ca u
conv inc
ic ks</w>
be g
obvi ous</w>
fi c</w>
as on</w>
al one</w>
exact ly</w>
usu ally</w>
mur der</w>
davi d</w>
w illi
sho wn</w>
writ er</w>
s le
g ore</w>
ro les</w>
op ening</w>
act ed</w>
ro bert</w>
c ool</w>
su ff
cle ar</w>
st ro
si ble</w>
ss ing</w>
con fu
p lease</w>
happ ened</w>
jo kes</w>
hil arious</w>
s low</w>
i a</w>
si ons</w>
19 7
re ality</w>
h ours</w>
fo cu
u m</w>
rele ased</w>
inter est</w>
eng lish</w>
s ong</w>
pa in
e a
f ren
pro f
de scri
sho ts</w>
ev i
f lo
19 8
v ent</w>
gh ts</w>
wor ds</w>
wh ose</w>
happ y</w>
sa ying</w>
mi dd
pla y
nat ur
o d
e scap
ct or</w>
typ ical</w>
a vo
vo ice</w>
e ty</w>
ge or
m es</w>
li c</w>
g an
ter ri
r unning</w>
te en
re min
import ant</w>
en ted</w>
seri ously</w>
for m</w>
m c
on e
num ber</w>
be y
hu ge</w>
mes sa
star ted</w>
h it</w>
to day</w>
re spe
expe cted</w>
sa d</w>
b la
mar k</w>
t ment</w>
se cre
po t
er y</w>
tal ent</w>
c ing</w>
ver s
b al
p lu
n one</w>
ti es</w>
cinemato graphy</w>
po wer</w>
w ester
m a</w>
l ou
v al</w>
anno ying</w>
relation ship</w>
tra v
in es</w>
bro ther</w>
cra p</w>
ch i
enti al</w>
o sc
c all</w>
maj or</w>
bey ond</w>
your self</w>
pho to
z z
du e</w>
some what</w>
g or
d el
t al</w>
a rent</w>
o w
fa il
wa y
al ing</w>
mo stly</w>
f ur
d ol
s an
ap paren
ridicul ous</w>
predic table</w>
her o
tel evi
f our</w>
care er</w>
w oo
k new</w>
j ap
sc ary</w>
fem ale</w>
s ons</w>
mis s</w>
li ke
h y
om e</w>
apparen tly</w>
19 9
un s</w>
se ts</w>
de ta
soun d
tal king</w>
r is</w>
kno ws</w>
b ing</w>
sil ly</w>
j ack</w>
hus band</w>
le s
su n
stran ge</w>
re al
direct ors</w>
d am
bas ically</w>
sc a
nov el</w>
lev el</w>
j er
is ed</w>
r ating</w>
moder n</w>
li es</w>
document ary</w>
wh ats</w>
attem p
pre mi
ev ent
de m
se ar
o ther
opin ion</w>
g la
sequ ence</w>
up on</w>
nec ess
f all</w>
gi ving</w>
mus ical</w>
p an
per fec
con c
ati onal</w>
fa ir</w>
d en</w>
cle arly</w>
fin ds</w>
u es</w>
fam ous</w>
st ep
i sts</w>
brit ish</w>
g on
d ition</w>
att ention</w>
cla ss</w>
c ting</w>
gge st</w>
televi sion</w>
r ated</w>
mov ing</w>
em p
car to
t ers</w>
loc al</w>
at mo
pl ic
disappoin ted</w>
le ss
atmo sp
ap preci
the tic</w>
l a</w>
intel lig
se m
fren ch</w>
episo des</w>
ent y</w>
cer tain</w>
che ap</w>
tr ou
whe ther</w>
o d</w>
u te</w>
sing le</w>
fall s</w>
proble ms</w>
on g
in ci
tell s</w>
lo ts</w>
coun try</w>
in st
si onal</w>
r ac
h en
tal k</w>
pre vi
sp on
t om
v en
thrill er</w>
mat eri
g ol
fi ve</w>
po wer
ab ility</w>
m enti
ev ents</w>
t in
s it
son gs</w>
sel f
paren ts</w>
m ed</w>
sex ual</w>
as pe
ad d</w>
act s</w>
suppor ting</w>
di o</w>
eas ily</w>
le g
ha vent</w>
b lu
diff ic
fo re
in ing</w>
b en
appe ars</w>
de al</w>
cre ep
gir l
eas y</w>
enjoy able</w>
nee ds</w>
f y</w>
simil ar</w>
d ance</w>
bo y
revie w</w>
f lu
br ing</w>
roman tic</w>
ne ar</w>
entertain ment</w>
sur vi
ab ove</w>
s it</w>
ka y</w>
g one</w>
wor king</w>
v ely</w>
t ation</w>
t a</w>
v am
bo ys</w>
ear th</w>
film ed</w>
act ual</w>
surpri sed</w>
men tion</w>
geor ge</w>
te am</w>
sequ ences</w>
at tr
dialo g</w>
fi el
tri ed</w>
d ity</w>
ad ap
nam ed</w>
vie wers</w>
sound track</w>
fu ture</w>
messa ge</w>
mov e</w>
am ong</w>
h ate</w>
c ent
is su
pp ing</w>
de s
ali an</w>
sp ace</w>
k able</w>
do g</w>
with in</w>
the me</w>
ro l
tu res</w>
sol di
ma l</w>
c oo
sor ry</w>
f i</w>
com ic</w>
y or
sho wing</w>
int ro
g ood
theat er</w>
th re
adv ent
o t</w>
he av
tell ing</w>
cl ic
8 0s</w>
bun ch</w>
tal e</w>
y al</w>
re ve
fe els</w>
o w</w>
nar r
poin ts</w>
fi g
fi ed</w>
b it
s the</w>
story line</w>
midd le</w>
in de
du ll</w>
sta y</w>
st y</w>
m ac
sh e
che ck</w>
fir e</w>
comm ents</w>
k ept</w>
con cer
bu y</w>
ul tim
a ds</w>
s qu
min ute</w>
mi sta
a ver
com b
bu sin
ro ck</w>
t less</w>
r am
an tly</w>
fa st</w>
t op
great est</w>
m ents</w>
c ked</w>
pa thetic</w>
me ans</w>
doub t</w>
susp ense</w>
st age</w>
dram atic</w>
succ ess
ne arly</w>
do wn
vie wing</w>
dd en</w>
n or</w>
for d</w>
mon ster</w>
appe ar
e o
t y
h ur
po or
ke t</w>
la dy</w>
au th
cre at
br ought</w>
t an
effor t</w>
th u
sub ject</w>
sequ el</w>
e g
er ing</w>
writ ers</w>
ric hard</w>
p h</w>
h s</w>
d r</w>
pe ter</w>
im d
re lease</w>
in a</w>
el ements</w>
ed iting</w>
some how</w>
low ed</w>
t ten</w>
on y</w>
feat ure</w>
h oo
v an</w>
sh ar
ex ist
avo id</w>
a ir</w>
d y
stra ight</w>
mur der
lea ds</w>
ra y</w>
fanta stic</w>
es y</w>
19 5
ser v
r a</w>
imagin e</w>
lit er
revie ws</w>
f er</w>
si ster</w>
h ood</w>
ju m
you ve</w>
un k</w>
li st
kill s</w>
c y
begin s</w>
st at
her self</w>
w ill
pa red</w>
s op
materi al</w>
es ome</w>
for get</w>
event ually</w>
quest i
lear n</w>
s a</w>
pau l</w>
hor ri
fr ont</w>
z ar
m ou
for ward</w>
ex e
wa it</w>
im p
pres sed</w>
exc ep
cri me</w>
mar y</w>
bu t
re spon
possi bly</w>
he ar</w>
gener al</w>
ey e</w>
o kay</w>
premi se</w>
kill ing</w>
it al</w>
fig ure</w>
for ced</w>
chil d
surpri se</w>
ther e
deci ded</w>
partic ular</w>
wat er</w>
ti m</w>
g ed</w>
myster y</w>
peri od</w>
hi stor
2 0</w>
aver age</w>
who s</w>
yor k</w>
ma x</w>
c king</w>
pu b
mi d
di sp
pres ent</w>
ki d
in ess</w>
e qu
wr ite</w>
am oun
qu ick
de ep</w>
what ever</w>
he ad
we ak</w>
er ed</w>
b le
an i
per s
lead ing</w>
st ick</w>
diffic ult</w>
ster eo
situ ation</w>
s al
interest ed</w>
convinc ing</w>
ni ght
d ang
inde ed</w>
anim ation</w>
nee ded</w>
de pic
cre w</w>
rev ol
sh or
gh o
b il
de sig
d iti
poor ly</w>
j our
memor able</w>
w in</w>
sh ame</w>
emo tional</w>
li er</w>
l ame</w>
co stu
bo x</w>
wester n</w>
t ro
atmosp here</w>
tru th</w>
stre et</w>
stru gg
lea ves</w>
a re
rec og
m illi
c over</w>
ur y</w>
pers onal</w>
le e</w>
fol low</w>
jap an
do ctor</w>
log ical</w>
op en</w>
ni fic
nat ure</w>
f ree</w>
th ird</w>
ex per
s en</w>
foo tage</w>
sho w
plu s</w>
gu n</w>
sci fi</w>
w ear
un less</w>
no te</w>
c ir
tain s</w>
s am
r y
osc ar</w>
s ligh
cen tr
wor ked</w>
m al
ex pla
cred its</w>
ex tr
se ason</w>
me et</w>
imd b</w>
tot al</w>
read ing</w>
quest ion</w>
te en</w>
sh er</w>
s ar
en ly</w>
ho t</w>
pre sen
ac y</w>
rom ance</w>
gra p
ga y</w>
beg in</w>
en ge</w>
feat ures</w>
exe cu
ck y</w>
other wise</w>
h old</w>
f ying</w>
be came</w>
fam ili
who m</w>
han ds</w>
m ale</w>
che esy</w>
menti oned</w>
ne w
japan ese</w>
si des</w>
se ly</w>
se tting</w>
jo e</w>
b o</w>
in no
me ets</w>
is land</w>
eu ro
dist ur
previ ous</w>
soun ds</w>
psy cho
beau ty</w>
we ird</w>
ic es</w>
ac king</w>
film makers</w>
r ich</w>
oc ca
ju st
spe a
re fer
ple as
di ed</w>
con clu
pp y</w>
v is
s i</w>
we st</w>
to wards</w>
ro b
li fe
soci ety</w>
perfec tly</w>
in side</w>
keep s</w>
m as</w>
em bar
quick ly</w>
natur al</w>
m ach
f it</w>
co p</w>
super b</w>
incredi bly</w>
cop y</w>
like ly</w>
go tten</w>
appe ar</w>
uni que</w>
p al
or d</w>
k o
cra zy</w>
comm ent</w>
b ill</w>
screen play</w>
sat is
resul t</w>
g ha
po se</w>
br ings</w>
bo t
v arious</w>
in du
g y</w>
busin ess</w>
b om
w ol
c al
reali ze</w>
l en
bat tle</w>
ef fect</w>
s k</w>
fair ly</w>
ol der</w>
fiel d</w>
bad ly</w>
ag es</w>
st al
19 6
ph ys
lan gu
sci enti
master piece</w>
19 3
laugh s</w>
chri sti
bab y</w>
or din
w y
v ers</w>
te st</w>
ear lier</w>
ro l</w>
ac ci
direc ting</w>
i di
creep y</w>
as k</w>
portra yed</w>
as su
a st</w>
in si
gh ting</w>
americ a</w>
hon est
ap art</w>
girl friend</w>
shi ps</w>
kno w
dum b</w>
back ground</w>
u ses</w>
k u
jo ke</w>
s mar
power ful</w>
develop ment</w>
bre ak</w>
pl enty</w>
ta st
k en
fil led</w>
adm it</w>
pa y</w>
sp ent</w>
follo wing</w>
deser ves</w>
out side</w>
ki e</w>
b ir
7 0s</w>
manag es</w>
m ess</w>
a ir
me ant</w>
fa sc
19 4
ro w</w>
mm er</w>
ju d
fi ghting</w>
ell ing</w>
wast ed</w>
st op
scri p
ne l</w>
re pe
cla ss
re make</w>
d ents</w>
bo ard</w>
ac hi
con ne
ar ds</w>
tal ented</w>
par t
expe cting</w>
woo ds</w>
famili ar</w>
cu te</w>
li st</w>
willi am</w>
secre t</w>
amoun t</w>
acc ur
mis sing</w>
g over
succ ess</w>
ide as</w>
come di
cau ght</w>
af ter
stan tly</w>
inv est
ca sting</w>
wa iting</w>
reli gi
s w
c le</w>
re turn</w>
pub lic</w>
polit ical</w>
mis sed</w>
st ore</w>
cre ate</w>
lar ge</w>
a red</w>
a il
ti me
produc ed</w>
necess ary</w>
l in</w>
attemp ts</w>
a de
st in
har dly</w>
des per
de stro
g ers</w>
spe ci
do w</w>
car ri
har d
ru ssi
o tic</w>
d ate</w>
ac tions</w>
sci ence</w>
s er</w>
rec ently</w>
prof es
fl ic
dre am</w>
b on
ar ri
j ack
comm un
th i
reas ons</w>
po pu
joh n
fasc in
su spe
marri ed</w>
fla sh
w ro
w ood
un like</w>
p ace</w>
for ce</w>
dis ney</w>
in form
s low
re ma
fa ils</w>
oul d
l am
zombi e</w>
se y</w>
mem bers</w>
ag ree</w>
swe et</w>
s is</w>
ne g
con tri
ger man</w>
wro te</w>
intro duc
im medi
1 2</w>
tw ist</w>
log y</w>
embar ra
com par
dis gu
i an</w>
par ty</w>
int enti
g oo
de te
t em
fa shi
disc over
t es</w>
pot ential</w>
e e
cl ever</w>
popu lar</w>
tra ge
p ure</w>
escap e</w>
cha se</w>
j ac
carto on</w>
sear ch</w>
ro ad</w>
g ing</w>
it alian</w>
mat ch</w>
al low</w>
ch em
m er</w>
z es</w>
tr an
gen u
de ep
ag ed</w>
ment al</w>
comp any</w>
in tri
bi zar
th o
od d</w>
fun ni
dan cing</w>
sligh tly</w>
comm on</w>
1 5</w>
mov es</w>
hal f
visu al</w>
sa dly</w>
form er</w>
we e
incredi ble</w>
consider ing</w>
off ice</w>
se es</w>
villa in</w>
r oun
nu dity</w>
con tr
st ate</w>
psy ch
laugh ing</w>
mi x
p it
ac tive</w>
success ful</w>
gen i
bro thers</w>
w el
spe ak</w>
g n
enti rely</w>
cred it</w>
r on
fur ther</w>
so li
d ent
tu red</w>
in ce</w>
sen s
r at
cre ated</w>
nei ther</w>
is ing</w>
b ility</w>
3 0</w>
s ingly</w>
re mar
cent ury</w>
coun t</w>
be at</w>
viol ent</w>
la w</w>
intellig ent</w>
b ol
so cial</w>
follo ws</w>
ap p
a st
su dd
re gar
fanta sy</w>
bo red</w>
pie ces</w>
m ir
acc ep
ma ster</w>
exc iting</w>
ac ked</w>
ma d</w>
i i</w>
de ca
sudd enly</w>
is es</w>
ten sion</w>
langu age</w>
com pu
an ti
vic t
trou ble</w>
am ing</w>
ha m
wal k</w>
p un
in spi
a th
t one</w>
r ate</w>
ch u
lau gha
com pared</w>
typ es</w>
sp end</w>
p in
mean ing</w>
g ang
dep th</w>
audi ences</w>
s ent</w>
ima ges</w>
appreci ate</w>
tra in</w>
n ational</w>
ta gon
re d
produc ers</w>
man i
youn ger</w>
wor thy</w>
fl at</w>
ba sic</w>
impressi ve</w>
sco tt</w>
pro du
p ra
deci des</w>
bi ggest</w>
presen ted</w>
j un
ut ter
th or
ma ke
lon ger</w>
no tic
effec tive</w>
an a</w>
portra yal</w>
fe ar</w>
val ue</w>
teen ag
colle ge</w>
c old</w>
ad ded</w>
invol ving</w>
contin u
bl es</w>
por tun
di r
op portun
li kes</w>
ag ing</w>
ha un
ch ur
bi g
fri end
s ick</w>
expe ct
bl ing</w>
bizar re</w>
a i
gover n
st ant</w>
pro ject</w>
poin tless</w>
it ation</w>
s l
cul ture</w>
th om
ing er</w>
gan g</w>
a side</w>
re n</w>
ju li
spir it</w>
sh ak
s li
recog ni
it y
de si
consi der</w>
respe ct</w>
chang ed</w>
b en</w>
tra il
com pet
ba rely</w>
p tion</w>
ha ir</w>
gran d
cri min
am at
ali en</w>
ordin ary</w>
wer ent</w>
ali ve</w>
j ane</w>
d ness</w>
ultim ately</w>
deci de</w>
conc ept</w>
cho ice</w>
c at</w>
b y
ter min
situ ations</w>
po sed</w>
pl ane</w>
l and
hon est</w>
ex t
p il
no l
dep end
rec ent</w>
cont rol</w>
surpri singly</w>
focu s</w>
boo ks</w>
ad ul
s of
recomm ended</w>
consider ed</w>
b ought</w>
am using</w>
al e
tech n
pos itive</w>
k ar
val ues</w>
re de
stan ds</w>
k el
hit ch
g an</w>
char les</w>
nor mal</w>
g ru
sing ing</w>
christ mas</w>
sho wed</w>
an n
tur ning</w>
su m
comm ent
cla im
ri sh</w>
ist ry</w>
ye ah</w>
soli d</w>
ma ker</w>
lea ving</w>
do or</w>
bra in</w>
advent ure</w>
z ation</w>
tra sh</w>
inspi red</w>
im possible</w>
ar ing</w>
am ed</w>
ov ers</w>
ca st
ti red</w>
star ring</w>
pre ss</w>
questi ons</w>
ni e</w>
n omin
b age</w>
av ail
y l
some where</w>
tou ch</w>
s and
sou th</w>
honest ly</w>
cam p</w>
pri son</w>
v el
l ab
af ric
p ire</w>
k a</w>
i shed</w>
hum our</w>
p ick</w>
mil it
gra de</w>
a sh
ob se
invest ig
chem istry</w>
bor n</w>
f ru
p pe
in sul
as sa
ssi on</w>
im prov
fa ke</w>
disp la
c ore</w>
acc ent</w>
0 0</w>
r uns</w>
pr act
liter ally</w>
sub tle</w>
sk y</w>
hu man
al lo
re fu
immedi ately</w>
sit ting</w>
ad ult</w>
10 0</w>
stu dio</w>
fail ed</w>
anim ated</w>
gar bage</w>
develop ed</w>
wh er
t in</w>
s n
ge ly</w>
ei ved</w>
distur bing</w>
rev enge</w>
j en
ev id
chan nel</w>
tri p</w>
sex y</w>
p y</w>
w on</w>
en ced</w>
aw esome</w>
and a</w>
n es
l eng
lov er</w>
ell a</w>
ter n
lov es</w>
fe sti
f al
ex pressi
than ks</w>
th ir
j ones</w>
ex plain</w>
be ha
ar my</w>
st ic
shoo ting</w>
par k</w>
g lo
clu b</w>
ac comp
th ing
sa m</w>
re por
or ity</w>
is on</w>
chang es</w>
tw ists</w>
le t
gla d</w>
ch all
min d
ill s</w>
ig n
dru g</w>
te l</w>
spoil ers</w>
soldi ers</w>
sle ep
no body</w>
j im</w>
ho sp
stand ard</w>
rema ins</w>
issu es</w>
fic tion</w>
d or
off ic
avail able</w>
al d</w>
thin ks</w>
it es</w>
cu ri
utter ly</w>
te ac
t ough</w>
t i</w>
con flic
an ne</w>
sp or
shoo t</w>
pur pose</w>
s our
geni us</w>
er o</w>
a do
pro te
plo ts</w>
gu il
au str
s m</w>
k er
jour ney</w>
i al</w>
g un
g i</w>
bro ad
spe ct
photo graphy</w>
intri gu
deli ver
d omin
blu e</w>
pas s</w>
sm ith</w>
we ek</w>
vam pire</w>
con tra
b its</w>
vi a</w>
li kable</w>
vi du
nei gh
indi vidu
gener ally</w>
a si
c ult</w>
v s</w>
s ki
m ood</w>
no where</w>
appear ance</w>
ing ing</w>
ima l</w>
char ming</w>
pro c
m oun
plac es</w>
mov ed</w>
mel o
manag ed</w>
b ran
aspe ct</w>
tast e</w>
st ry</w>
fran k</w>
ch ap
wal king</w>
smar t</w>
ne t
e th
dr in
con stantly</w>
amat eu
bl ed</w>
li shed</w>
bo ther</w>
ap ar
ter ms</w>
lov ely</w>
kno wing</w>
in iti
histor ical</w>
he y</w>
person ally</w>
p ati
ig n</w>
d ad</w>
bot tom</w>
na ked</w>
cinem atic</w>
charact er
sla sher</w>
fi gu
cir cu
at e
all s</w>
mo tion</w>
fre e
da y
conclu sion</w>
su rely</w>
scen ery</w>
hi c</w>
ght ful</w>
gho st</w>
st on</w>
me t</w>
govern ment</w>
gi ant</w>
de f
con tains</w>
comple x</w>
as s</w>
beauti fully</w>
zombi es</w>
z en</w>
ph il
than k</w>
st eve</w>
pro tagon
lat ter</w>
just ice</w>
e m</w>
ste war
sil ent</w>
ch in
sou l</w>
pres ence</w>
lo ck</w>
ed ge</w>
pic tures</w>
ould ve</w>
on ic</w>
hear t
gr y</w>
comm er
come dies</w>
s mo
emo tions</w>
s lo
cat ch</w>
watch able</w>
ter r
inno cent</w>
il ed</w>
ch ris</w>
appe al</w>
vie ws</w>
u g
r are</w>
plan et</w>
d an</w>
com for
thro w</w>
se tt
s na
ma gic</w>
ic a</w>
fr on
fam il
m it
terri fic</w>
ri de</w>
ber g</w>
se t
suppo se</w>
n ames</w>
em y</w>
d ying</w>
d i</w>
adap tation</w>
you d</w>
wil d</w>
su gge
pu ts</w>
appro pri
on to</w>
min or</w>
exc use</w>
un g</w>
spe e
out standing</w>
thro wn</w>
th us</w>
re si
lou d</w>
a bu
r ace</w>
make up</w>
indi an</w>
se g
sc ent</w>
know le
every body</w>
en er
dar k
ch oo
be sides</w>
att ack</w>
r s</w>
milit ary</w>
in flu
de ad
lon don</w>
b ond</w>
pl an</w>
in depend
h ang
costu mes</w>
en coun
centr al</w>
p lea
m un
ly n
compu ter</w>
un believable</w>
tou ching</w>
ti al</w>
pl es</w>
buil ding</w>
achi ev
par is</w>
in spir
equ ally</w>
di men
slow ly</w>
je cts</w>
ang el
u r</w>
af fec
5 0</w>
bro o
reas on
li ved</w>
deta ils</w>
bri ef</w>
ici de</w>
int ended</w>
impressi on</w>
laugha ble</w>
go d
boy friend</w>
vic tim
tit les</w>
narr ative</w>
myster ious</w>
hitch co
crit ics</w>
b a</w>
ur s</w>
ter ed</w>
in ation</w>
hop ing</w>
film ing</w>
cro w
char lie</w>
c el
re fle
ge ous</w>
feel ings</w>
produc er</w>
pain ful</w>
disappoin ting</w>
spea king</w>
dete ctive</w>
an ts</w>
them es</w>
opportun ity</w>
v ari
uni vers
un t</w>
stu dents</w>
fac es</w>
cont em
ir rit
beha vi
ver se</w>
st om
man ner</w>
ab sur
pa rent</w>
attr active</w>
aspe cts</w>
wear ing</w>
ton y</w>
o cc
main ly</w>
fre sh</w>
n ers</w>
gg ed</w>
cor rec
ran dom</w>
gr ace</w>
differ ence</w>
dang er
pos ition</w>
mor al</w>
fin ding</w>
th ou
s no
ra ge</w>
hosp ital</w>
f ra
cli max</w>
emo tion</w>
bil ly</w>
s an</w>
exper im
d ated</w>
bru ce</w>
americ ans</w>
v is</w>
te dly</w>
op era</w>
not ice</w>
cop s</w>
bl ack
b ar</w>
mo de
hel d</w>
an ces</w>
sc ar
re mo
ough ly</w>
l ers</w>
fo rev
disc u
c ry</w>
c ali
ap er</w>
ligh ting</w>
n es</w>
hur t</w>
forev er</w>
for ge
st ance</w>
st unning</w>
re sem
christ op
c over
a di
laugh ed</w>
hol es</w>
h a</w>
gre en</w>
fin ish</w>
de mon
dra wn</w>
al ed</w>
w re
inclu de</w>
festi val</w>
confu sing</w>
al ities</w>
har ry</w>
enti ally</w>
cl ar
char m</w>
suppo se
supp ort</w>
re qui
milli on</w>
comm it
a in</w>
vic tim</w>
ima ge</w>
an tic
stu dent</w>
plac ed</w>
ir s</w>
fascin ating</w>
expect ations</w>
aw ard</w>
su s</w>
t ex
n in
wol f</w>
wit ch</w>
im pressed</w>
g ames</w>
confu sed</w>
st ation</w>
pa id</w>
grap hic</w>
g am
c ele
ar gu
loc ation</w>
ur a</w>
pla u
f ted</w>
ch as
ch am
op er
mista ke</w>
col or</w>
spect ac
re gu
foo t
du bb
ach ed</w>
w ow</w>
pro p
com pla
christi an</w>
c er</w>
mis sion</w>
dru gs</w>
an na</w>
y a</w>
cam e
a se</w>
su ggest</w>
sh are</w>
relation ships</w>
po st
f ell</w>
di sh</w>
pu tting</w>
fall ing</w>
ac e
g ent
consi st
y m
ra id</w>
j im
vi sion</w>
se a</w>
ba se
sur roun
qu o
l acks</w>
comp elling</w>
ab le
sym pa
gre e</w>
extre me</w>
tiv ely</w>
t ch</w>
il lu
disappoin tment</w>
b an</w>
su mmer</w>
s ity</w>
j an
h en</w>
and re
wor th
will ing</w>
ssi ve</w>
seem ingly</w>
s ite</w>
p es</w>
marri age</w>
inform ation</w>
fi f
christop her</w>
u t</w>
stru c
heav y</w>
f li
ch y</w>
suppose dly</w>
st ood</w>
shak espe
ph one</w>
par o
off er</w>
int ense</w>
fol ks</w>
fl icks</w>
cre ative</w>
sho ck</w>
ro bo
pa in</w>
russi an</w>
dre ams</w>
di e
z e
victim s</w>
be th</w>
accur ate</w>
su it</w>
re sc
ha m</w>
ex plan
c o</w>
appro ach</w>
st ren
ex ic
bo ss</w>
rede em
d dy</w>
we a
tw ice</w>
re y</w>
pro gre
ans wer</w>
we ap
ra dio</w>
hel ps</w>
forge tt
disap pe
d ding</w>
brea king</w>
9 0</w>
tu al</w>
st one</w>
happ ening</w>
ligh ts</w>
ge m</w>
cont ent</w>
ag s</w>
ste m</w>
el ement</w>
th at
t s
m exic
k ick</w>
hu mor
ha snt</w>
there fore</w>
profes sional</w>
em plo
b acks</w>
pul l</w>
ag ent</w>
a head</w>
su peri
less ly</w>
di str
charact eri
actre sses</w>
stu pi
ro ll</w>
excep tion</w>
deli vers</w>
absolu te</w>
v ol
u red</w>
spoil er</w>
r ick</w>
medi oc
hor r
v an
stren g
si ght</w>
dri ve</w>
ch est
appe ared</w>
sho cking</w>
off ers</w>
no ir</w>
gor geous</w>
de par
ch er</w>
w all</w>
ne ws</w>
trail er</w>
sh ouldnt</w>
ren ted</w>
qu een</w>
min i
funni est</w>
est ab
clo se
att itu
ad ds</w>
pic ked</w>
na sty</w>
mar tin</w>
k ing
indu stry</w>
in s
be at
b att
af fair</w>
pos se
bo at</w>
al lowed</w>
a a
na z
medioc re</w>
k is
colle ction</w>
chur ch</w>
adul ts</w>
pre si
h in
aw are</w>
ar ily</w>
wonder ing</w>
wh il
th es</w>
stewar t</w>
ev ent</w>
ali st</w>
si x</w>
prov es</w>
di v
p se</w>
o li
mach ine</w>
k ev
fru str
for gotten</w>
what so
k it
d om
be coming</w>
ste p</w>
po pul
neg ative</w>
mo on</w>
min e</w>
id ent
deta il</w>
sig nific
kel ly</w>
dam n</w>
sy stem</w>
mi x</w>
fran k
fla ws</w>
ama z
phys ical</w>
he ads</w>
bat man</w>
anim als</w>
n ap
imp act</w>
ad ed</w>
remin ded</w>
pri v
ac ade
thu r</w>
sho p</w>
provi des</w>
t ol
secon ds</w>
remem ber
re g
ag ue</w>
susp en
sp ar
s ev
pp er</w>
p on
mo m</w>
film making</w>
creat ure</w>
beli ef</w>
ug ly</w>
th in</w>
stu ck</w>
spo t</w>
mer ely</w>
ill a</w>
he a
gu i
w w
su icide</w>
sp an
dre ssed</w>
co m</w>
ach ing</w>
th is
mem ber</w>
me d
mar i
h yp
h at
expla ined</w>
c gi</w>
arti stic</w>
bo x
lead er</w>
ho tel</w>
gg ing</w>
fol lowed</w>
fel low</w>
a po
kev in</w>
se par
disa ster</w>
a wa
lo gi
tra gic</w>
por n</w>
pleas ant</w>
diti onal</w>
cl ich</w>
ar thur</w>
an gry</w>
tion ally</w>
teac her</w>
ad dition</w>
ac cor
thor oughly</w>
sup er</w>
seri al</w>
soldi er</w>
gr at
f red</w>
cap tain</w>
z a
qu ick</w>
jo y</w>
h ill</w>
con ve
comp are</w>
are a</w>
z ero</w>
sy n
stand ards</w>
mag nific
lo se</w>
thom as</w>
mo tiv
comment ary</w>
a u</w>
1 1</w>
pres ent
list en</w>
wood en</w>
vam pi
st ates</w>
oun ds</w>
forgett able</w>
b i</w>
ar ts</w>
reali zed</w>
extr a</w>
direc t</w>
bar bar
6 0s</w>
s even</w>
mou th</w>
fl ying</w>
teen age</w>
sh el
pres ents</w>
p age</w>
nor m
imagin ation</w>
f at
de al
car ry</w>
po p</w>
person ality</w>
num bers</w>
l un
fav our
fashi on</w>
deli ver</w>
as si
af raid</w>
on ing</w>
n an
l ord</w>
hel ped</w>
fin ished</w>
sion ally</w>
it able</w>
ge l</w>
child hood</w>
bloo dy</w>
sh ir
s ac
on i
mur ders</w>
li ber
g as</w>
dir ty</w>
de b
as ked</w>
1 8
w ind</w>
oun d
mul ti
f ood</w>
contin ue</w>
any more</w>
surpri sing</w>
st itu
notic ed</w>
mo re
ici al</w>
ic e
h ic
war s</w>
wan ting</w>
w o
se as
real ism</w>
fi ghts</w>
ati vely</w>
to days</w>
re turns</w>
knowle dge</w>
trage dy</w>
con vers
j ason</w>
hero es</w>
dro p</w>
hou se
t ons</w>
religi ous</w>
proc ess</w>
ge st</w>
g ory</w>
ep ic</w>
col um
introduc ed</w>
euro pe
s ab
respon sible</w>
r on</w>
lov ers</w>
dev o
whatso ever</w>
descri be</w>
leng th</w>
00 0</w>
th ough
t te</w>
sym bo
s enti
ra pe</w>
pas sion</w>
lo s</w>
acc ept</w>
si de
je an</w>
chin ese</w>
sto ck</w>
de c
str on
scienti st</w>
le c
hol ds</w>
wher e
strugg le</w>
s at</w>
dre ad
con stru
su cks</w>
provi de</w>
on ally</w>
f ly</w>
f act
dan i
hen ry</w>
call s</w>
z i
wor k
s in</w>
op pos
lim ited</w>
tor ture</w>
se ful</w>
ri c</w>
mon sters</w>
i th
der ing</w>
at ors</w>
s ent
redeem ing</w>
ra rely</w>
n on</w>
j a</w>
in cre
clo thes</w>
apar tment</w>
v y</w>
tru st</w>
s lu
rec or
po wers</w>
hi dden</w>
ener gy</w>
ell s</w>
ad ver
theat re</w>
tech ni
ry an</w>
remar kable</w>
m ill
hor se</w>
gra m</w>
f at</w>
danger ous</w>
ti ves</w>
revol u
laugh ter</w>
k in</w>
intrigu ing</w>
inclu des</w>
eng aging</w>
beg an</w>
b al</w>
as ks</w>
an th
under standing</w>
t le
en i
ar ies</w>
4 0</w>
1 3</w>
te ars</w>
norm ally</w>
deep ly</w>
acci dent</w>
z o
v ac
than k
sing er</w>
ru bb
p ir
mem ory</w>
ju dge</w>
jer ry</w>
independ ent</w>
favour ite</w>
deser ve</w>
comedi c</w>
y a
win ning</w>
un known</w>
ni a</w>
gen e</w>
film maker</w>
deser ved</w>
com plic
clic hs</w>
aw k
ta pe</w>
sle ep</w>
remin ds</w>
lov ing</w>
ac tion
2 0
re gre
mi ke</w>
es the</w>
dri ving</w>
desig n</w>
superi or</w>
g ar</w>
g a</w>
un usual</w>
suspe ct</w>
pre ssing</w>
fo x</w>
deser t</w>
dan ny</w>
ch op
bl ame</w>
any body</w>
th ous
step hen</w>
pri son
le w
intellig ence</w>
clic h
any where</w>
ag re
tw ist
tre at</w>
sh y</w>
explan ation</w>
cele br
appropri ate</w>
int en
ght ers</w>
e duc
willi ams</w>
re pu
pro ce
lu cky</w>
friend ship</w>
at ro
h ated</w>
ell o</w>
terr ori
sa v
prov e</w>
pac ing</w>
j am
in o</w>
her e
c lim
wonder fully</w>
whil st</w>
ho pe
f its</w>
cu ts</w>
bu ster</w>
bri an</w>
nu mer
ma d
an imal</w>
acade my</w>
a de</w>
ren ce</w>
memor ies</w>
g ary</w>
dou ble</w>
dent ally</w>
cla u
ck er</w>
assa ss
pret enti
plea sure</w>
n ever
issu e</w>
em an</w>
e ting</w>
de st</w>
cur rent</w>
ap parent</w>
adv an
y u
y n</w>
pac ed</w>
i p
gr and</w>
ve hic
un cle</w>
ne t</w>
n ick</w>
wa sh
sop hi
play er</w>
mean ing
cap ture</w>
al an</w>
sh ap
mar tial</w>
loc ations</w>
keep ing</w>
b by</w>
wi de</w>
ic ked</w>
bru tal</w>
bl on
bi o
wh en
mus ic
il ing</w>
desper ate</w>
der ed</w>
qu ir
g al
fri ght
be l</w>
tt a</w>
pr ice</w>
ff s</w>
de termin
buil d</w>
bre ak
str ic
sca red</w>
ab and
tre ated</w>
k i</w>
de a
sk i</w>
rel ev
play ers</w>
ex tra
war ning</w>
villa ins</w>
ser ved</w>
gra du
g on</w>
g ags</w>
disc over</w>
succ ee
sh eri
ous y</w>
h an</w>
g uns</w>
cap able</w>
accor ding</w>
v hs</w>
re gi
i ght
con stant</w>
si sters</w>
pa ir</w>
mon ths</w>
low budget</w>
lear ned</w>
b right</w>
b our
y the</w>
wee k
thre at
qu a
oppos ite</w>
john ny</w>
do w
cap tured</w>
phil o
n ur
loo se</w>
l acking</w>
her ent</w>
conne ction</w>
as soci
un necessary</w>
stan ces</w>
s ni
priv ate</w>
m are</w>
l ying</w>
l ars</w>
in ely</w>
gol den</w>
fil l</w>
discover ed</w>
cre ating</w>
ad dic
u ps</w>
occa sionally</w>
j r</w>
g old</w>
car s</w>
bro ken</w>
te di
spe ctive</w>
f on
ex pl
et te</w>
commun ity</w>
ta yl
refer ences</w>
offic er</w>
lo ss</w>
les bi
in dic
ed die</w>
de aling</w>
chall eng
star ting</w>
some body</w>
sex u
origin ally</w>
mon o
m rs</w>
f it
conflic t</w>
bud dy</w>
ski p</w>
ke t
hu mans</w>
gu ar
gro wing</w>
do s</w>
al ism</w>
r an</w>
oc cu
it or</w>
her es</w>
gu es
for ces</w>
crimin al</w>
a sure</w>
ut ter</w>
ther ed</w>
sp l
magnific ent</w>
lo y
r ound</w>
ell ed</w>
ed ited</w>
d un
bloo d
sig n</w>
ser ve</w>
ri ed</w>
r out
natur ally</w>
mix ed</w>
gol d
ex ist</w>
en de
em er
e at</w>
when ever</w>
pr inci
fin est</w>
f our
po st</w>
lan ds</w>
kill ers</w>
he al
gener ation</w>
fre qu
flo or</w>
dre ss</w>
bel ow</w>
ong ly</w>
li sh
li f
ing ton</w>
wer e
ro ber
ran ge</w>
ra d
pro per
fa ith</w>
ele c
wit ty</w>
techn ical</w>
tech no
jack son</w>
ess or</w>
circu m
writ er
w eve</w>
h its</w>
fore ign</w>
de als</w>
vie wed</w>
so ap</w>
ou d</w>
m ers</w>
k o</w>
desi re</w>
sym pathetic</w>
sm ile</w>
ex plic
a im
medi a</w>
ef f</w>
ar t
sat ur
ph ili
human ity</w>
v ul
un funny</w>
t is</w>
se an</w>
nic ely</w>
man age</w>
genu ine</w>
crit ic
c able</w>
we al
bl and</w>
arti st</w>
sa ving</w>
ro g
re l</w>
fr ame</w>
numer ous</w>
hop es</w>
ha dnt</w>
d ary</w>
ac ul
10 10</w>
ve ter
stre am</w>
ru p
rel ate</w>
leg end</w>
it ous</w>
dimen sional</w>
br inging</w>
be t</w>
ar ity</w>
sa ved</w>
rec ord</w>
j on
ill ing</w>
bro wn</w>
ang le</w>
am b
le gen
ke at
k ri
fe et</w>
cra ppy</w>
compar ison</w>
ban ds</w>
an der
to ward</w>
ju sti
cast le</w>
big ger</w>
v inc
st ol
span ish</w>
si x
se at</w>
off en
o dd
foo t</w>
ch ic
behavi or</w>
ri se</w>
qui et</w>
part ner</w>
how ard</w>
en vir
en ce
rubb ish</w>
rel ated</w>
pretenti ous</w>
humor ous</w>
hitchco ck</w>
bom b</w>
ac hes</w>
mis er
kid nap
c ab
ati ves</w>
sh er
ro om
ren s</w>
rec eived</w>
pil ot</w>
mo ore</w>
kin da</w>
hero ine</w>
f are</w>
bu s</w>
al ex
teenag ers</w>
satis fying</w>
pri est</w>
ess entially</w>
terri bly</w>
reve aled</w>
prov ed</w>
philo sop
mor ning</w>
jen ni
genu inely</w>
fa il</w>
bo dies</w>
bo b</w>
an n</w>
ak a</w>
v ity</w>
pul led</w>
ori ous</w>
j eff</w>
inclu ded</w>
ger y</w>
sp oo
s lea
n is</w>
lon g
k ni
inst ance</w>
emp ty</w>
at ory</w>
al le
win dow</w>
tin y</w>
stereo types</w>
provi ded</w>
prom o
p ar</w>
op ens</w>
n ative</w>
for mul
dr unk</w>
do gs</w>
an t
tex as</w>
ri ver</w>
or gan
murder ed</w>
mani pul
jum p</w>
feat uring</w>
ev ol
europe an</w>
envir on
com man
absur d</w>
9 0s</w>
villa ge</w>
stre ets</w>
gr ant</w>
da vis</w>
bu m
bl ind</w>
an o</w>
wre st
vampi res</w>
ori a</w>
mean while</w>
lew is</w>
gi e</w>
frank ly</w>
fa ult</w>
effor ts</w>
tal ents</w>
la ke</w>
jim my</w>
g le</w>
cro ss</w>
cla im</w>
uni on</w>
revie wers</w>
r ical</w>
ing the</w>
id enti
descri bed</w>
cra ft</w>
contem por
char is
vo te</w>
ti e</w>
s and</w>
remember ed</w>
la w
ins ane</w>
don ald</w>
d the</w>
adv ice</w>
ther n</w>
stre ss</w>
ri es</w>
re action</w>
psycho logical</w>
experi enced</w>
e ating</w>
d ry</w>
blo ck
trav el</w>
stu dy</w>
streng th</w>
prov o
prom ise</w>
mu m
brea ks</w>
y n
she er</w>
pas sed</w>
li ed</w>
be ar
ri st</w>
resul ts</w>
regu lar</w>
o ts</w>
ne ed
ma ss
jenni fer</w>
hun ter</w>
high er</w>
gre w</w>
f ame</w>
dread ful</w>
co w
un ited</w>
sh i</w>
fa ith
au st
ali ens</w>
ad a</w>
un able</w>
tre at
scre am</w>
sch oo
s end</w>
paro dy</w>
lo ses</w>
y er</w>
visu ally</w>
sat ire</w>
portra y</w>
o p</w>
night mare</w>
gr am
f u</w>
comfor table</w>
ag ger
prom ising</w>
presi dent</w>
gh ty</w>
ban k</w>
vis it</w>
stu di
s ell</w>
mil es</w>
fav or</w>
eng land</w>
conv enti
choo se</w>
al tern
195 0s</w>
you th</w>
u re
st even</w>
rob in</w>
ow ner</w>
hal lo
fa thers</w>
du p</w>
ad es</w>
w ra
survi ve</w>
sh am
scen ari
inter national</w>
h i</w>
we ar</w>
under rated</w>
ultim ate</w>
t z</w>
stu m
r ings</w>
protagon ist</w>
peop les</w>
ous ness</w>
irrit ating</w>
cor ny</w>
contri ved</w>
class ics</w>
an ci
un realistic</w>
t ched</w>
neigh b
mu st
mat ure</w>
ha w
e ye
allo ws</w>
se ag
ru pt</w>
pro gram</w>
non sense</w>
flash backs</w>
fi re
en ter</w>
contin ues</w>
ch e</w>
tw enty</w>
pre gn
k y
in ts</w>
attitu de</w>
vi vi
un expected</w>
jo an</w>
er ic</w>
can dy</w>
buil t</w>
brea th
appe aling</w>
ac cu
they ve</w>
su cked</w>
gre en
austr alian</w>
att ers</w>
spectac ular</w>
lu ck</w>
ea st
asi an</w>
suff ering</w>
st ated</w>
ri d</w>
n au
me eting</w>
li ght
la dies</w>
ga in</w>
for ms</w>
f ate</w>
curi ous</w>
cont ext</w>
b es</w>
wit nes
sh allow</w>
scre aming</w>
prop ag
o l</w>
fail ure</w>
d ick</w>
co st</w>
tayl or</w>
ste al</w>
re fre
re ach</w>
r ying</w>
fe st</w>
exc it
evid ence</w>
e the</w>
e ma
do ws</w>
demon str
de man
de but</w>
awk ward</w>
assu me</w>
all y
worl ds</w>
i z
contra st</w>
concer ned</w>
a c</w>
sel ess</w>
nomin ated</w>
les son</w>
free dom</w>
foot ball</w>
exist ence</w>
di g
commer cial</w>
bur n</w>
barbar a</w>
w it</w>
lo gic</w>
hallo we
d red</w>
cam p
stat ement</w>
spor ts</w>
sc or
s kills</w>
qu est</w>
gro w</w>
crow d</w>
blo wn</w>
all en</w>
rec all</w>
p ity</w>
ed ly</w>
e ag
b in</w>
an dy</w>
o sa
nor th</w>
mode l</w>
fin ale</w>
f ish</w>
deli ghtful</w>
ab or
tr y
sco t
qu es</w>
p stick</w>
end less</w>
wal ks</w>
vie w
th eless</w>
dre am
deliver ed</w>
chi ef</w>
cen ter</w>
visu als</w>
trans form
tal ks</w>
po e
mat t</w>
graph ed</w>
gang ster</w>
con fron
ch ick</w>
tra ditional</w>
ro se</w>
produ ct</w>
portra ys</w>
plo t
n el
ma s
gro wn</w>
e ds</w>
disc overs</w>
deci sion</w>
can adi
un intenti
str ongly</w>
sour ce</w>
over ly</w>
in y</w>
grap her</w>
k ins</w>
individu al</w>
grat u
g il
dubb ed</w>
bl an
year old</w>
sa ke</w>
po ses</w>
je sus</w>
ig nor
ident ity</w>
famil ies</w>
f acts</w>
e th</w>
dri ven</w>
dra g</w>
disgu sting</w>
we dding</w>
theat ers</w>
sh all</w>
ro y</w>
lev els</w>
ken ne
jo se
en cy</w>
dev il</w>
d ney</w>
contr over
comb ination</w>
auth or</w>
ver sions</w>
reli ef</w>
g lim
emo tionally</w>
em s</w>
du l
came o</w>
bu te</w>
b ell</w>
adver ti
mass ac
l ane</w>
formul a</w>
crit ical</w>
as king</w>
ad am</w>
ste als</w>
spee ch</w>
pos iti
n ation</w>
hea ven</w>
gon na</w>
euro pe</w>
creat ures</w>
cre ates</w>
cho re
act or
spe ed</w>
ru les</w>
necess arily</w>
m oo
invol ves</w>
h all</w>
cra sh</w>
b oun
an ds</w>
a x
z an</w>
ss y</w>
qu e
er r
d ence</w>
compet ent</w>
ti ght</w>
te ens</w>
s this</w>
s oul
op e</w>
i rish</w>
hand some</w>
ar ch
am bi
m ate</w>
t ill</w>
re p
pro per</w>
hom o
fac ed</w>
chore o
cho sen</w>
su dden</w>
ro b</w>
revie wer</w>
per spective</w>
m atic</w>
hope fully</w>
cle an</w>
2 5</w>
u k</w>
sk in</w>
re main</w>
lo sing</w>
ju lie</w>
hun t</w>
ho le</w>
he ck</w>
e qui
din osa
com pre
ch an</w>
ca used</w>
serv ice</w>
ma de
it e
hy ster
fran ce</w>
con fi
brilli antly</w>
believ es</w>
be ach</w>
pat rick</w>
lou is</w>
je cted</w>
eli za
destro y</w>
ci ous</w>
wit ness</w>
war m</w>
v in</w>
ri po
produ ce</w>
gu es</w>
ci a</w>
sc ale</w>
resc ue</w>
rec k</w>
ph y</w>
in ev
fi es</w>
theat rical</w>
ter ror</w>
t ually</w>
sof t</w>
never theless</w>
anci ent</w>
vehic le</w>
v ili
sheri ff</w>
ser ves</w>
rol ling</w>
r ab
pu ppe
maj ority</w>
k ong</w>
deca de</w>
conv ic
co herent</w>
anth ony</w>
re search</w>
execu ted</w>
devel op</w>
de pressing</w>
be ar</w>
wee ks</w>
way ne</w>
wal ked</w>
tre m
teenag er</w>
studi os</w>
shakespe are</w>
sac ri
pre d
net work</w>
mar ket</w>
insul t</w>
horri bly</w>
hallowe en</w>
figu red</w>
exc ited</w>
cou rage</w>
clu e</w>
ber g
a wards</w>
v el</w>
trav el
sho cked</w>
ren tal</w>
in te
ev ening</w>
cat eg
c iti
ste in</w>
lear ns</w>
er ies</w>
bb c</w>
197 0s</w>
w ins</w>
st un
se ction</w>
offen sive</w>
keat on</w>
hear ing</w>
gl as</w>
ca res</w>
5 0s</w>
though ts</w>
sexu ality</w>
satur day</w>
p aper</w>
o re
n am</w>
ma sk</w>
k ir
ic ate</w>
ha ir
vo ices</w>
vie t
sub titles</w>
pl ans</w>
philosop h
intel lec
g ab
en emy</w>
cover ed</w>
con f
sur real</w>
ja y</w>
horr or
contempor ary</w>
1 st</w>
tr il
stop ped</w>
se cur
movi es
la wy
fle sh</w>
dri ver</w>
dou glas</w>
dol lars</w>
ca s
b ac
ang les</w>
recogni ze</w>
present ation</w>
p al</w>
inter pret
gratu itous</w>
co de</w>
blon de</w>
ar ms</w>
advent ures</w>
8 10</w>
obse ssed</w>
en thu
den nis</w>
dark ness</w>
correc t</w>
be tra
as le
win ner</w>
ter ing</w>
sequ els</w>
m atters</w>
emp ha
d ys</w>
circum stances</w>
al y</w>
adm ir
wh el
techno logy</w>
sp ends</w>
si bility</w>
pr ince</w>
par an
mat es</w>
l or
extr as</w>
enthu si
el se
ei ght</w>
dist ri
claim s</w>
ang er</w>
worl d
we ight</w>
tedi ous</w>
relev ant</w>
l o</w>
in f
gu ard</w>
ca sh</w>
c i</w>
b movie</w>
b low</w>
propag anda</w>
over the
g rit
explo itation</w>
co sts</w>
twist ed</w>
lat est</w>
je wish</w>
direct ly</w>
at ure</w>
ale x</w>
al ice</w>
vir tually</w>
tu re
th um
sur face</w>
s p</w>
ov ed</w>
hand led</w>
embarra ssing</w>
depic ted</w>
ben ef
ad ding</w>
sm all
rel atively</w>
r o</w>
pain fully</w>
lov e
lesbi an</w>
k ur
ici an</w>
f actor</w>
cy n
all ing</w>
portra ying</w>
ma r</w>
lyn ch</w>
ko re
jap an</w>
hol ding</w>
extra ordinary</w>
sor ts</w>
shar p</w>
pr int</w>
nic hol
g in</w>
c ous
tur al</w>
ra in</w>
col or
cha ir</w>
ar m</w>
war ri
treat ment</w>
suff ers</w>
su e</w>
sh ine</w>
sc are</w>
s pre
ro bb
plau sible</w>
men ted</w>
lar gely</w>
hom e
gra ve</w>
el le</w>
cu tting</w>
commit ted</w>
chang ing</w>
bu tt
b ound</w>
z z</w>
veter an</w>
t il
stra ight
st ically</w>
sel e
pre pared</w>
lar ry</w>
incre as
har ris</w>
ci vili
carto ons</w>
cap tures</w>
an al
x ious</w>
vi sible</w>
v a</w>
trans l
sympa thy</w>
step s</w>
sla pstick</w>
perfor med</w>
l ousy</w>
it i</w>
dy nam
y e</w>
wat er
univers al</w>
ther ine</w>
si ze</w>
ru ined</w>
mar ry</w>
j ar
ho li
half way</w>
canadi an</w>
cali for
unfortun ate</w>
t end</w>
suspen seful</w>
sens itive</w>
re la
por t</w>
dau ghters</w>
c a</w>
shor t
seg ment</w>
ri ghts</w>
for th</w>
bl in
asle ep</w>
amateu rish</w>
ur al</w>
tre k</w>
struc ture</w>
remin i
religi on</w>
ol d
jose ph</w>
ger many</w>
cra w
costu me</w>
conv ince</w>
and or</w>
an gel</w>
z u
sub stance</w>
signific ant</w>
re tar
pe ace</w>
oun ded</w>
mic hel
experi ences</w>
eri e</w>
eliza beth</w>
de fe
ch ron
st an</w>
reg ard</w>
ou ting</w>
k ings</w>
hi de</w>
guil ty</w>
focu sed</w>
ent ers</w>
child rens</w>
broad way</w>
bo w
ar m
z a</w>
tol er
t ab
solu tion</w>
pa y
er otic</w>
en a</w>
w ns</w>
w all
spo il</w>
sp ite</w>
previ ously</w>
pati ent</w>
mor gan</w>
ir o</w>
in e
dem ons</w>
comp an
bri d
tril og
re ver
qu alities</w>
psych o</w>
mit ch
hang ing</w>
ga re
d d</w>
c ket</w>
bra in
we ak
wash ington</w>
v a
uni verse</w>
tar get</w>
stereo typical</w>
sa fe</w>
prof essor</w>
pract ically</w>
min ds</w>
main stream</w>
jac kie</w>
ed ward</w>
dra w</w>
dead ly</w>
be d
requi red</w>
land scap
haun ting</w>
exist ent</w>
adm it
wel come</w>
pol ic
pe t</w>
p y
ov i
ne ar
lin s</w>
ex press</w>
displa y</w>
bi e</w>
appreci ated</w>
x i
vi l</w>
sam u
moun tain</w>
k ate</w>
faith ful</w>
de an</w>
clich d</w>
ch ose</w>
ca ge</w>
wi de
vari ety</w>
super natural</w>
spea ks</w>
reve al</w>
rev el
pul ls</w>
mo d
min is
ex agger
dr acul
co inci
al co
not ch</w>
ic ed</w>
g ate</w>
ex act</w>
ev es</w>
depar tment</w>
d ings</w>
b one</w>
wal ter</w>
tra pped</w>
t ext</w>
secur ity</w>
sch em
pri me</w>
po ign
ma ssive</w>
jun gle</w>
fri day</w>
for got</w>
fo rest</w>
feat ured</w>
f s</w>
c es
amateu r</w>
al es</w>
al bert</w>
acci dentally</w>
su n</w>
ro ger</w>
leg al</w>
je al
imagin ative</w>
i ster</w>
excit ement</w>
ent al</w>
du de</w>
de gree</w>
con tain
clo ser</w>
cap tiv
believ ed</w>
tru ck</w>
tic ally</w>
thank fully</w>
super man</w>
seas ons</w>
rout ine</w>
re pet
on ey</w>
na ive</w>
idi ot</w>
gran ted</w>
che e
7 10</w>
mu m</w>
intro du
ho ff
gor don</w>
el ess
de stru
convers ation</w>
ca ses</w>
wester ns</w>
sim on</w>
refre shing</w>
re r</w>
overthe top</w>
is ol
entertain ed</w>
c ell</w>
bir th</w>
al i</w>
198 0s</w>
tra ining</w>
stol en</w>
spo of</w>
seag al</w>
r er
pr inc
occ ur
no on</w>
influ ence</w>
fri en
e at
dea ths</w>
d ur
cr ying</w>
categ ory</w>
can ni
austr ali
ab il
trilog y</w>
th a</w>
story telling</w>
remo tely</w>
mov ement</w>
mar vel
ir on
d il
cru el</w>
call ing</w>
at ra</w>
abu se</w>
z ens</w>
worth while</w>
sp in
regre t</w>
r in
lu c
hol mes</w>
har sh</w>
dre w</w>
c ure</w>
br on
as h</w>
tar zan</w>
mil dly</w>
li on</w>
iti ous</w>
inno c
ic ity</w>
hit ler</w>
dang er</w>
ch ina</w>
aband oned</w>
a z
un likely</w>
u sa</w>
stor m</w>
s ne
robo t</w>
p ses</w>
n ab
m on</w>
m g
frien dly</w>
f icial</w>
de ath
convinc ed</w>
carri es</w>
bo thered</w>
ani me</w>
sta yed</w>
rober ts</w>
qu ar
ph illi
ori al</w>
mic key</w>
kin ds</w>
i sh
encoun ter</w>
cle an
b alls</w>
acc ents</w>
ac tiv
wil son</w>
vil le</w>
ou trage
no stal
lo wer</w>
in ted</w>
every where</w>
week end</w>
u s
ter m</w>
te eth</w>
rol led</w>
repor ter</w>
ren ting</w>
quir ky</w>
multi ple</w>
mista kes</w>
ing ers</w>
in stru
ct ors</w>
ton i
sc o</w>
regar ding</w>
pra ise</w>
ke ys</w>
initi al</w>
effec tively</w>
cr y
cor por
continu ity</w>
con centr
amaz ingly</w>
tou ches</w>
st oo
lu dic
legen dary</w>
ig no
hi red</w>
expla ins</w>
down right</w>
dani el</w>
ba th
se l</w>
s ick
ripo ff</w>
pas sing</w>
mar ks</w>
mag ical</w>
f light</w>
e g</w>
destro yed</w>
a int</w>
4 10</w>
we b
tur key</w>
t v
t ack
sum mary</w>
so le
ob sc
nur se</w>
mur phy</w>
m ol
ludic r
h ed</w>
ga z
fal se</w>
fa st
do zen</w>
char ge</w>
ca ine</w>
bra ve</w>
ac count</w>
v ar
thro ws</w>
stitu te</w>
sophi stic
se u
ri p</w>
pro gram
pre su
p hi
oo oo
ne ys</w>
melo drama</w>
grit ty</w>
em ma</w>
ea st</w>
com ed
col ors</w>
1 4</w>
were wolf</w>
thro wing</w>
sp y</w>
sol ve</w>
provo king</w>
p ile</w>
ou ts</w>
la ura</w>
juli a</w>
han ded</w>
f ool</w>
ex er
ei gh
di am
califor nia</w>
b in
avo i
sc ious</w>
re main
ra ised</w>
op s</w>
ne ck</w>
list ening</w>
i or</w>
hel p
focu ses</w>
desig ned</w>
ali ke</w>
19 2
who ever</w>
surpri ses</w>
spoil er
si r</w>
see k</w>
s wit
produc tions</w>
n y
midd le
in tr
ic ious</w>
haun ted</w>
han g</w>
diti ons</w>
d al
bra z
ac he</w>
vict or</w>
v es
trem end
t ren
pri or</w>
origin ality</w>
occa sional</w>
k im</w>
il le</w>
h at</w>
great er</w>
chap lin</w>
block buster</w>
atro cious</w>
afric an</w>
200 1</w>
spo ken</w>
sp ac
soun ded</w>
o ce
mo thers</w>
l er
in ner</w>
gu l
fo x
favor ites</w>
el in
duc ed</w>
broo ks</w>
br a</w>
w wi
sub plot</w>
sp a
recog n
r un
narr ation</w>
minis eries</w>
flash back</w>
e cc
bu ying</w>
al right</w>
under stood</w>
tou ched</w>
st am
polit ics</w>
mo b
m m</w>
inter view</w>
fortun ately</w>
weap ons</w>
wal ker</w>
ru le</w>
ri x</w>
retar ded</w>
jour n
fa bul
cor n</w>
an te
tra p</w>
t am
s ovi
reve als</w>
rel l</w>
rac ist</w>
pr oud</w>
me ta
massac re</w>
life time</w>
heav ily</w>
fortun e</w>
execu tion</w>
e z</w>
ci vil</w>
be ast</w>
afric a</w>
z er</w>
writer director</w>
v ent
ss ell</w>
scenari o</w>
s old</w>
lo ad</w>
insi ght</w>
i zed</w>
ep tion</w>
el ev
e ed</w>
dracul a</w>
div or
complic ated</w>
claim ed</w>
cham pi
car ing</w>
bet ter
be it</w>
1 3
viet nam</w>
su ck</w>
pre fer</w>
ph an
ke ts</w>
h ack
fac ial</w>
en gin
depic tion</w>
deep er</w>
co st
cho ices</w>
cam py</w>
well es</w>
war ned</w>
tre asure</w>
stran ger</w>
sm oo
ro ck
pu zz
perfor m</w>
li br
la y</w>
kis s</w>
head ed</w>
funni er</w>
dol lar</w>
dem on</w>
wear s</w>
ur ban</w>
sub sequ
stat us</w>
ro w
rac ism</w>
me l</w>
in ha
ha y
clo sing</w>
base ball</w>
t or</w>
sta ys</w>
repu tation</w>
repe ated</w>
p uni
over whel
ima gery</w>
happ en
er al</w>
don na</w>
direct or
ch ased</w>
bl at
bar ry</w>
star red</w>
sou thern</w>
r ough</w>
po sing</w>
pat ri
pa ying</w>
l loy
l an</w>
j unk</w>
it a</w>
intellec tual</w>
fright ening</w>
ander son</w>
ade qu
1 7</w>
w ouldve</w>
sk ill</w>
ru b
ra pi
ob no
lon ely</w>
hi de
expl or
ess ential</w>
drin king</w>
controver si
comb ined</w>
bla h</w>
bir th
arri ves</w>
1 10</w>
tw o
ti sh</w>
sp ort</w>
shor ts</w>
sha dow</w>
reali zes</w>
ni c</w>
loc ked</w>
ho st</w>
hel ping</w>
h ong</w>
gla ss</w>
d oo
critic ism</w>
an ic</w>
ad ing</w>
a ks</w>
vir gin
tim ing</w>
survi v
sig ned</w>
remo te</w>
ran k</w>
ra di
r ou
pregn ant</w>
ne u
john son</w>
fin an
figu res</w>
f x</w>
ba g</w>
un fol
st ab
sh u
non eth
me tal</w>
initi ally</w>
fa ul
coun ter
chas ing</w>
c tions</w>
bel oved</w>
ba se</w>
y ers</w>
techn ically</w>
su san</w>
separ ate</w>
sear ching</w>
ra w</w>
po p
pi er
mo b</w>
ment ally</w>
inter views</w>
gru esome</w>
gre e
fla w
expressi on</w>
dri ves</w>
bri ef
3 10</w>
v in
v est
the ory</w>
san ta</w>
r al
mu ch
ici ans</w>
exam ples</w>
din ner</w>
d less</w>
bal ance</w>
b ren
arti sts</w>
ali zed</w>
t the</w>
s its</w>
ru in</w>
o le</w>
le on
ja il</w>
high light</w>
gr in
fem in
expressi ons</w>
enter tain</w>
da ily</w>
cul tural</w>
consist ent</w>
attemp ting</w>
al beit</w>
under ground</w>
t emp
symbo li
sno w
remini scent</w>
princ ess</w>
par ker</w>
p a</w>
on gs</w>
ne st</w>
m st
m ere</w>
h h
gent le
fl at
deli very</w>
at ically</w>
ta sk</w>
ssi e</w>
scre ening</w>
sc oo
pu bl
p ath</w>
oli ver</w>
murder er</w>
mexic an</w>
lawy er</w>
ign ore</w>
hand le</w>
enter ed</w>
ch en</w>
carri ed</w>
cap it
c ouldve</w>
b and
an toni
stru ck</w>
si e</w>
sh oul
ran ks</w>
ong st</w>
nu de</w>
man n</w>
ma gaz
d der</w>
am ongst</w>
thou ght
sh ell</w>
s mu
ru ssell</w>
k ov
goo fy</w>
f low</w>
da w
wwi i</w>
strugg ling</w>
sa fe
min ded</w>
gr ab
dev ice</w>
b ore</w>
un interesting</w>
pro of</w>
off ered</w>
ni ghts</w>
k at
j on</w>
in die</w>
guar ante
go th
co ach</w>
bu gs</w>
breath taking</w>
ama zed</w>
after noon</w>
under stand
un convincing</w>
sit com</w>
sh ut</w>
rec ei
h o</w>
determin ed</w>
deca des</w>
controversi al</w>
chu ck</w>
ca therine</w>
bu ff
an tin
te d
nov els</w>
no wa
ly wood</w>
jo bs</w>
inte gr
in ept</w>
gu est</w>
en try</w>
desper ately</w>
cur se</w>
conv eni
bur ns</w>
bor ro
9 10</w>
tal es</w>
sp ace
sleep ing</w>
protagon ists</w>
per c
on el</w>
non existent</w>
mi sca
jo in</w>
c ats</w>
al ty</w>
4 5</w>
v au
scrip ts</w>
s wi
ous es</w>
mi d</w>
le tting</w>
k il
gi a</w>
f bi</w>
boo k
tom my</w>
sun day</w>
si er</w>
lin e
it the</w>
inspir ation</w>
indi a</w>
gho sts</w>
deli ber
con tain</w>
bri dge</w>
att acks</w>
ali stic</w>
accep ted</w>
ac ed</w>
y ard</w>
pu rely</w>
ph en
pac ked</w>
mst 3
k ane</w>
funn y
fact ory</w>
fabul ous</w>
ep h
environ ment</w>
do o</w>
den i
conve y</w>
stran gely</w>
sca res</w>
revol ves</w>
prote ct</w>
proper ly</w>
pic ks</w>
ph ra
or m
ob je
no table</w>
mu ppe
michel le</w>
li sa</w>
je ff
is ms</w>
ir onic</w>
hi pp
four th</w>
fl yn
fic tional</w>
dram as</w>
de dic
cru de</w>
cra fted</w>
cour t
c is</w>
at lan
success fully</w>
su its</w>
s now</w>
kri st
inter net</w>
graph ics</w>
g as
embarra ss
clar k</w>
camer a
br un
ans wers</w>
am u
ab sor
v on</w>
tur ing</w>
sar ah</w>
ri ding</w>
no w
le ague</w>
in i</w>
en su
cont act</w>
cli ps</w>
c s</w>
ash amed</w>
tre e</w>
tan e
see king</w>
pre fer
mind less</w>
lab or
introduc tion</w>
inc or
ha u
h ence</w>
fol low
drin k</w>
descri ption</w>
crimin als</w>
conventi onal</w>
ci se</w>
where as</w>
weal thy</w>
si vely</w>
rec re
r ing
poin ted</w>
opin i
med ical</w>
mar ke
f ing</w>
ex pen
enti c</w>
dd led</w>
cour t</w>
auth entic</w>
au tom
ter y</w>
st ev
se en
s word</w>
questi on
pressi on</w>
nu clear</w>
mg m</w>
lu ke</w>
lear ning</w>
interpret ation</w>
happ iness</w>
h all
frequ ently</w>
f ts</w>
enjo ying</w>
cow boy</w>
ch illing</w>
ac le</w>
tit led</w>
succee ds</w>
ra ise</w>
obno xious</w>
mon d</w>
mill er</w>
let ter</w>
ic king</w>
ho t
fran ken
form at</w>
coun tries</w>
cau ses</w>
car rying</w>
atmosp her
ac ing</w>
z o</w>
top ic</w>
suff er</w>
stan wy
spir itu
ri sk</w>
pla stic</w>
pan ts</w>
or able</w>
mom ent
k ens</w>
hun dre
film the</w>
com ical</w>
chest er</w>
bre ath</w>
y an
tion ary</w>
sin ister</w>
sin atra</w>
screen writer</w>
p ack</w>
nol ds</w>
lloy d</w>
k icks</w>
e tern
contri bu
concer t</w>
compre hen
bo ar
ber n
su m</w>
stupi dity</w>
si f</w>
si es</w>
scienti sts</w>
respe ct
ren d
pa int</w>
inspir ing</w>
hear ted</w>
gues sing</w>
gh tly</w>
fran ch
fla wed</w>
fall en</w>
f ers</w>
coo per</w>
con ner
ann oun
vinc ent</w>
t ense</w>
sc rat
noneth eless</w>
idi otic</w>
est s</w>
es que</w>
con scious</w>
bol lywood</w>
bo re
bla ir</w>
bas is</w>
ap s</w>
am y</w>
achi eve</w>
y el
tra dition</w>
rat ings</w>
o wn
less ons</w>
hoff man</w>
gg y</w>
ext ent</w>
every day</w>
der i
consi sts</w>
bil ities</w>
b ird</w>
vo ice
strugg les</w>
st af
re dem
r hy
poign ant</w>
jam ie</w>
hel en</w>
dis like</w>
d son</w>
cyn ical</w>
commer ci
cal yp
att acked</w>
we ir
vac ation</w>
ti ed</w>
re y
paran o
op ened</w>
j ess
har dy</w>
en orm
cin der
chas es</w>
chall enge</w>
bour ne</w>
assi stant</w>
tri um
thous ands</w>
su ther
sty lish</w>
stun ts</w>
stop s</w>
st unn
sovi et</w>
sof t
re sta
pun ch</w>
ludicr ous</w>
lov able</w>
li sted</w>
la zy</w>
j es
experim ent</w>
dra gon</w>
de ar</w>
da ma
con spir
bu ck</w>
ar y
ar re
revolu tion</w>
ke st</w>
k ung</w>
im men
ho st
gh et
el and</w>
de stin
de scen
de mo
cou ra
com pe
bu cks</w>
val u
un believ
sub tle
sp in</w>
resta ur
refer ence</w>
pi e</w>
nowa days</w>
milli ons</w>
mid night</w>
it aly</w>
innoc ence</w>
hun dred</w>
fi ghter</w>
dr un
disa gree</w>
ans wer
alco ho
ac tic</w>
a vi
1 8</w>
z ard</w>
wh i
well s</w>
war n</w>
vo c
up set</w>
ste aling</w>
spi el
phen om
nic ol
ma dness</w>
hon or</w>
e x</w>
tun e</w>
techni que</w>
sel ling</w>
sc on
ra in
mar ie</w>
inv enti
great ly</w>
fla w</w>
f ed</w>
excep tional</w>
credi ble</w>
comedi an</w>
chu ck
al as</w>
ai red</w>
wa ve</w>
trou bled</w>
sy l
slea zy</w>
sha dows</w>
se d
regar dless</w>
qu is
on a</w>
neigh bor
movie the</w>
ing u
hundre ds</w>
hil ari
h ills</w>
fair y</w>
d are</w>
che ese</w>
ca su
c ers</w>
am or
193 0s</w>
wor ry</w>
woo dy</w>
tor n</w>
stom ach</w>
sil ence</w>
sett ings</w>
s light</w>
ri val</w>
re placed</w>
o o</w>
no ted</w>
mou se</w>
manag er</w>
hor rend
happ ily</w>
h ell
east wood</w>
d ge
cur ren
cous in</w>
che ap
accep table</w>
tr ick</w>
re vi
qu ali
mexic o</w>
me chan
in ct</w>
fic ation</w>
ex ists</w>
dic t
crit ici
confu sion</w>
con nec
clu m
c and
bi a</w>
abil ities</w>
tr om
suff ered</w>
so called</w>
s ings</w>
ri ght
pe ar
na vy</w>
mi ghty</w>
mi c</w>
man u
is er</w>
in nov
fla sh</w>
d s
cu t
c of
ar rog
typ ically</w>
ter rit
ru m
iti ons</w>
in stantly</w>
horri fic</w>
ha l</w>
g ent</w>
do ors</w>
dis belief</w>
con su
advan tage</w>
vide os</w>
tt es</w>
thi ef</w>
succ eed</w>
str ing</w>
sig n
sem ble</w>
quo te</w>
psy chi
phys ically</w>
p ool</w>
ob lig
it ably</w>
invol v
hear ts</w>
gri m</w>
ex p
escap es</w>
deli ght</w>
da ve</w>
conne cted</w>
c ard</w>
appear ing</w>
ang els</w>
200 5</w>
y l</w>
weap on</w>
wast ing</w>
tri bute</w>
to y</w>
spo ts</w>
sophistic ated</w>
re mind</w>
o z</w>
naz is</w>
naz i</w>
la un
inten sity</w>
ing i</w>
il es</w>
har ri
ge t
fiel ds</w>
cre ation</w>
car ic
bra d</w>
war ner</w>
tri al</w>
to il
surroun ding</w>
sca rec
repe at
qu ire</w>
psychi at
p oo
o sity</w>
n d</w>
mur ray</w>
ing e</w>
hi ding</w>
gu s</w>
go ds</w>
far m</w>
exper t</w>
deal t</w>
cu s
brief ly</w>
ambi gu
a than</w>
sand ra</w>
pat ter
ou l</w>
odd ly</w>
obse ssion</w>
need less</w>
mir ror</w>
ma sters</w>
l i</w>
inst all
in spe
h int</w>
go tta</w>
embarra ssed</w>
colum bo</w>
bit ter</w>
australi a</w>
ali en
ti re
sol ved</w>
sion ate</w>
li stic</w>
gri pping</w>
en ting</w>
credi bility</w>
coun try
clo sely</w>
birth day</w>
andre ws</w>
wan na</w>
tar antin
t our</w>
sugge sts</w>
stu ff
sil ver</w>
shoo ts</w>
shap e</w>
sa ves</w>
p ers</w>
om y</w>
mon key</w>
meaning ful</w>
individu als</w>
gl en
fi x
ess ence</w>
da wn</w>
car d
z one</w>
wom ans</w>
sh ines</w>
sen ds</w>
p seu
on elin
music als</w>
la id</w>
i red</w>
estab lished</w>
en ess</w>
discover y</w>
comed y
c on</w>
attr action</w>
attemp ted</w>
te ach</w>
t ations</w>
ster n</w>
sh op
ri pped</w>
mst3 k</w>
mat rix</w>
lu m</w>
l one</w>
ku br
kidnap ped</w>
jon athan</w>
jess ica</w>
gu ts</w>
ger mans</w>
fi sh
do g
dent al</w>
ch er
b all
appear ances</w>
an der</w>
an ced</w>
vide o
v et</w>
sw im
marvel ous</w>
m o</w>
hus bands</w>
hor ses</w>
f ically</w>
el abor
der ly</w>
cl ever
ci es</w>
bur t</w>
bu sy</w>
bla de</w>
bet ty</w>
achiev ed</w>
200 6</w>
wor kers</w>
u ous</w>
sna kes</w>
se duc
sa y
ru sh</w>
ro y
repe at</w>
n ine</w>
n ick
lu ck
kenne dy</w>
inci dent</w>
import antly</w>
i g</w>
gre ek</w>
con dition</w>
bear able</w>
tra um
su bur
pur su
ir ony</w>
h es
exer cise</w>
b are</w>
a ge
8 0</w>
196 0s</w>
t man</w>
sub plots</w>
speci fic</w>
rey nolds</w>
phili p</w>
p ack
over come</w>
ob serv
ob ject</w>
mat the
jud g
ful l
fe e</w>
fan cy</w>
fa ther
comp as
c roo
bo bby</w>
atmospher ic</w>
antic ip
ach el</w>
w reck</w>
suther land</w>
s by</w>
perfor mers</w>
not orious</w>
jum ps</w>
hoo ked</w>
gro ss</w>
ga g</w>
color ful</w>
1 6</w>
u ted</w>
thrill ers</w>
refu ses</w>
outrage ous</w>
no se</w>
nan cy</w>
le i
gr ounds</w>
expen sive</w>
dist inc
del u
bro ke</w>
vict oria</w>
v it
un inspired</w>
thous and</w>
techni ques</w>
poin t
pit ch</w>
on i</w>
hit ting</w>
equ al</w>
diffic ul
cinder ella</w>
200 0</w>
z zy</w>
ti an</w>
su pre
s che
pu m
pro found</w>
preci ous</w>
our selves</w>
o t
me at</w>
lu go
less er</w>
intenti ons</w>
in her
gl ory</w>
exc es
el ty</w>
do ctors</w>
co ck
ca ve</w>
bl ance</w>
bir ds</w>
be st
ve in</w>
thrill ing</w>
sty les</w>
st unt</w>
sp ending</w>
smo king</w>
s ally</w>
ra ped</w>
melo dramatic</w>
logi st</w>
le gs</w>
hun ting</w>
heal th</w>
he i
gui de</w>
elec tr
da m</w>
d ley</w>
base ment</w>
b c</w>
anno yed</w>
ag u
act ing
9 9</w>
s but</w>
ru shed</w>
re stra
r achel</w>
per sons</w>
op posed</w>
movie i</w>
mo tor
mar ine</w>
increas ingly</w>
im it
franch ise</w>
else where</w>
develop s</w>
d it
camer on</w>
and ers</w>
s ma
redem ption</w>
pic king</w>
person alities</w>
oun ding</w>
ou ter</w>
mon t
j o</w>
h att
glim pse</w>
for gi
en semble</w>
ear th
d enti
concer ns</w>
bul l
bet te</w>
ar ming</w>
un forgettable</w>
u seless</w>
stri king</w>
stanwy ck</w>
revel ation</w>
pred ator</w>
o il</w>
n it
mo ther
misca st</w>
ka ren</w>
holi day</w>
h ul
h ire</w>
fit ting</w>
di se
con sequences</w>
c ed
blo ws</w>
ber y</w>
bel ongs</w>
adap ted</w>
a unt</w>
w ic
soul s</w>
smo ke</w>
shor tly</w>
set up</w>
senti mental</w>
sa u
ro t</w>
ral ph</w>
portra it</w>
pic k
perfor ming</w>
pac ino</w>
mat th
ju ven
im mi
distri bu
coun ts</w>
cor ner</w>
c overs</w>
b ill
2 10</w>
st it
sour ces</w>
sc ope</w>
repeat edly</w>
re in
nol d</w>
lo id</w>
les lie</w>
kni fe</w>
in tim
import ance</w>
hom age</w>
he ist</w>
em ily</w>
el ed</w>
dol ph</w>
de tr
che cking</w>
bur ning</w>
bu sh</w>
batt le
as es</w>
they d</w>
st ill
reason able</w>
osc ars</w>
new sp
ma ss</w>
j or
hyp e</w>
ho lo
fashi oned</w>
enjoy ment</w>
encoun ters</w>
ea sier</w>
cro ss
cri mes</w>
cor rupt</w>
cl int</w>
br and</w>
be ings</w>
b lea
b at</w>
20 th</w>
wr ong
tr acks</w>
stre tch</w>
sp len
shir t</w>
ru th
ro cks</w>
repet itive</w>
reason ably</w>
pu sh</w>
p at</w>
l ing
jo y
je an
identi fy</w>
fol k</w>
er o
e i</w>
e con
destru ction</w>
a y</w>
wan nab
thre w</w>
t all</w>
shar k</w>
sh at
sa di
ro gers</w>
per t</w>
nin ja</w>
mu t
lau rel</w>
indi ans</w>
illu str
ha mmer</w>
el li
dra gs</w>
d af
cri sis</w>
compet ition</w>
came os</w>
be er</w>
batt les</w>
6 0</w>
ven ge
sk el
remain ing</w>
or chest
mar ia</w>
man ner
ma id</w>
l acked</w>
l ack
in famous</w>
g en</w>
form ed</w>
end a</w>
e o</w>
dra gged</w>
dan cer</w>
conf es
con sci
che er
bur ton</w>
ba y</w>
ar ran
amb itious</w>
wat ers</w>
un comfortable</w>
tal ked</w>
st icks</w>
spe c
sho es</w>
ra y
po well</w>
n ut
min imal</w>
libr ary</w>
le tt</w>
jer k</w>
horr ors</w>
ev o
ele g
e ding</w>
dubb ing</w>
dro pped</w>
d ill
bo w</w>
bi ble</w>
00 00</w>
wa ke</w>
w icked</w>
suspe cts</w>
rit a</w>
reve aling</w>
re turning</w>
pul p</w>
p an</w>
nor th
kore an</w>
is ation</w>
h ill
gro ws</w>
fur ther
fre ddy</w>
ex or
em br
do om
cab in</w>
attr acted</w>
ar nold</w>
al ong
val ent</w>
v als</w>
spl it</w>
so le</w>
pul ling</w>
partic ip
magaz ine</w>
loo sely</w>
in visible</w>
hard core</w>
god father</w>
flyn n</w>
ende aring</w>
di a</w>
coun tless</w>
ac es</w>
2 nd</w>
1 5
vul ner
u n</w>
u ght</w>
sc ul
no ise</w>
ne at</w>
k han</w>
ir a</w>
hol ly</w>
grou ps</w>
dialo gs</w>
de cl
ch s</w>
camera work</w>
brit ain</w>
ate ful</w>
w en
ten der</w>
st ur
sp are</w>
si a</w>
sha w</w>
pri de</w>
peop le
pas ses</w>
p over
onelin ers</w>
int ention</w>
glen n</w>
fun c
en han
ef s</w>
dv ds</w>
car pen
be ars</w>
won ders</w>
tim es
territ ory</w>
stri p</w>
ri s
me th
ly ric
in fec
h em
eng aged</w>
em pa
creat ors</w>
con serv
commun ic
comm it</w>
cel lu
ca ke</w>
b illi
4 0s</w>
tu be</w>
spoil ed</w>
scrip ted</w>
phenom en
perfec tion</w>
inspe ctor</w>
in n</w>
illi an</w>
ic op
hero ic</w>
fo ster</w>
e ff
di g</w>
carpen ter</w>
car n
believ ing</w>
3 0s</w>
w ack
tr icks</w>
thre at</w>
thir ty</w>
sto le</w>
sho wer</w>
sa ge</w>
ren e</w>
re war
re lu
r unn
po ster</w>
photo graphed</w>
mu sc
mon th</w>
horrend ous</w>
he at</w>
h bo</w>
f inger</w>
el derly</w>
direct orial</w>
busin ess
bore dom</w>
be ating</w>
ar med</w>
ad ri
th en
staf f</w>
spiritu al</w>
si dney</w>
pi ano</w>
ov en</w>
on er</w>
messa ges</w>
lo ser</w>
inter action</w>
in explic
igno red</w>
hop ed</w>
hand ful</w>
cy cle</w>
curren tly</w>
chri st</w>
care fully</w>
brea sts</w>
ti er</w>
t ing
sna ke</w>
respon se</w>
relu ct
real life</w>
pleas antly</w>
offic ers</w>
no ble</w>
hel icop
cor pse</w>
col our</w>
col la
che ek</w>
characteri zation</w>
ar gue</w>
app alling</w>
admit tedly</w>
accu sed</w>
a y
2 4</w>
wrest ling</w>
they ll</w>
stan ley</w>
satis fied</w>
sa ve
restaur ant</w>
rac ial</w>
pu shed</w>
m ly</w>
like able</w>
l il
gr ound
gen res</w>
fl am
el a</w>
bu ry</w>
audi o</w>
ast oni
associ ated</w>
watch es</w>
unintenti onally</w>
trav els</w>
toil et</w>
to wn
super bly</w>
shi p
sc ra
ro le
pre vent</w>
por no
ple ased</w>
om s</w>
mar ily</w>
man hatt
li king</w>
law rence</w>
int ent</w>
hear tw
gu e
goth ic</w>
e ive</w>
dre sses</w>
dis c</w>
cu stom
close ups</w>
charis matic</w>
card board</w>
allo wing</w>
1 2
tremend ous</w>
r ys</w>
presu ma
pas sen
oce an</w>
neighbor hood</w>
investig ation</w>
indu l
hy po
han ks</w>
grand father</w>
f ab
d ad
conner y</w>
braz il</w>
bo dy
argu ment</w>
apo calyp
air port</w>
affec ted</w>
tra de</w>
tit anic</w>
si mul
seg ments</w>
ric h
rel and</w>
mer it</w>
m it</w>
luck ily</w>
la ws</w>
kill ings</w>
in coherent</w>
g ad
flaw less</w>
f loo
conc eived</w>
butt on</w>
bri de</w>
blo wing</w>
ar a</w>
am a</w>
af ore
w es</w>
vi g
ta x
t ele
symboli sm</w>
surroun ded</w>
subsequ ent</w>
sub jects</w>
sig ns</w>
s ke
ri ve
rec k
re ha
ra d</w>
presuma bly</w>
possi bility</w>
p unk</w>
motiv ation</w>
matthe w</w>
lu ci
loc ks</w>
jum ping</w>
ja ke</w>
horri d</w>
g om
fre eman</w>
fif teen</w>
em per
e go</w>
dor o
dist ant</w>
devo id</w>
deliver ing</w>
de l</w>
dar ing</w>
conc ep
bu m</w>
am anda</w>
y o</w>
tr am
se um</w>
s wa
re presents</w>
re di
re actions</w>
pin k</w>
mitch ell</w>
le st</w>
l on</w>
l it</w>
inev itable</w>
high lights</w>
guil t</w>
gab ri
ext ended</w>
dro ps</w>
deta iled</w>
defin ite</w>
conne ct</w>
comple x
comm uni
arri ve</w>
ado p
adm ire</w>
1 6
wor ried</w>
wi shes</w>
tr ite</w>
sti ff</w>
ri ous</w>
requi res</w>
posse ssed</w>
pit t</w>
li fel
jer emy</w>
fre ak</w>
fir st
elec tri
di an</w>
concer ning</w>
clu es</w>
ch or
cas save
car l</w>
bu ried</w>
bi c</w>
back drop</w>
ad y</w>
wor ker</w>
we b</w>
v ague</w>
travel ing</w>
th ar
su res</w>
se mi
s wor
s so</w>
reali se</w>
re turned</w>
predic t
p ha
lu cy</w>
i ds</w>
hu dson</w>
ho ly</w>
gri ff
gener ous</w>
es is</w>
e erie</w>
du st</w>
dra ws</w>
dra w
dist ingu
deman ds</w>
contr ary</w>
chic ago</w>
buil ds</w>
broad cast</w>
are as</w>
y ester
win ds</w>
ve y</w>
su b</w>
si an</w>
san ity</w>
rec eive</w>
provi ding</w>
prom in
p he
om ic</w>
off ering</w>
mis ses</w>
je w
idi ots</w>
ha mil
ful ci</w>
fran ci
fi x</w>
enti es</w>
dist ance</w>
di d
cred ited</w>
brilli ance</w>
ben e
a king</w>
z el</w>
w are</w>
thrill s</w>
the ar
stri kes</w>
stri ke</w>
secre t
pro jects</w>
pover ty</w>
pe st</w>
occ urs</w>
no p
must see</w>
miser ably</w>
ing redi
in ser
gradu ally</w>
fl ori
ent ric</w>
el lar</w>
dol l</w>
document aries</w>
curi osity</w>
commerci als</w>
ch ers</w>
bro ad</w>
beat en</w>
be fore
b ates</w>
anal y
alex ander</w>
al together</w>
air plane</w>
afore mentioned</w>
y i</w>
writ es</w>
wonder ed</w>
tor tured</w>
spo t
ser ving</w>
se ment</w>
russi a</w>
pri se</w>
nor man</w>
mor ality</w>
matth au</w>
mac y</w>
lo u</w>
ku dos</w>
fi red</w>
em ent
eless ly</w>
chan ces</w>
angel es</w>
andre w</w>
adequ ate</w>
threat ening</w>
th ed</w>
spoo ky</w>
sex ually</w>
secre ts</w>
pain ting</w>
o s
ma u
m in</w>
li e
jeal ous</w>
it ll</w>
hi p</w>
fir m</w>
dre ssing</w>
dinosa urs</w>
dd le</w>
d as</w>
d al</w>
cr ack
constru cted</w>
a sts</w>
a ar
z en
unbeliev ably</w>
tt ers</w>
to s</w>
thum bs</w>
terrori st</w>
sul li
sh ining</w>
sh a</w>
r ural</w>
r d</w>
pro stitute</w>
nel son</w>
ke y
in ju
i ii</w>
go ers</w>
g yp
for give</w>
et c
di vi
compla int</w>
be ats</w>
assass in</w>
v ast</w>
t ally</w>
st aged</w>
st able</w>
simil ar
ridicul ously</w>
re ss</w>
ra p
pri marily</w>
osc ar
ment ality</w>
insul ting</w>
hyster ical</w>
hum ili
hat red</w>
h ouses</w>
gi ft</w>
far ce</w>
ed itor</w>
de e</w>
comb at</w>
charis ma</w>
ca red</w>
bu tt</w>
199 9</w>
un doub
spe cially</w>
side kick</w>
s ers</w>
ran ger</w>
pl at
pan ic</w>
ma x
loo k
investig ate</w>
har t</w>
go al</w>
gla sses</w>
gi gg
explo sions</w>
evid ent</w>
escap ed</w>
dis jo
co le</w>
cha os</w>
ca using</w>
bra v
bio graphy</w>
b ath</w>
b af
ar tic
any ways</w>
aim ed</w>
will is</w>
warri or</w>
to f
tim eless</w>
swe dish</w>
stereo type</w>
star t
sp ring</w>
some ones</w>
sin cer
secon dly</w>
se cu
scienti fic</w>
resem bles</w>
re sur
puni sh
pop corn</w>
ph ony</w>
out come</w>
occu r</w>
meaning less</w>
isol ated</w>
good ness</w>
fun eral</w>
fe der
execu tive</w>
ev a</w>
en em
displa ys</w>
dise ase</w>
di gn
cri ed</w>
cra ig</w>
cl ou
c ities</w>
arre sted</w>
ad o</w>
z s</w>
ven ess</w>
sy nop
sun der
s able</w>
re ached</w>
ra il
obsc ure</w>
men acing</w>
medi um</w>
man sion</w>
m ess
j i
it o</w>
inter pre
frustr ated</w>
for mu
fe ars</w>
ex posed</w>
ecc entric</w>
e able</w>
du ty</w>
doro thy</w>
differ ences</w>
cou ples</w>
con ver
com ics</w>
camer as</w>
bul lets</w>
anno y
accomp lished</w>
worth less</w>
univers ity</w>
t at
swe ar</w>
schoo l
sa d
psycho tic</w>
night ma
mod els</w>
made for
m ile</w>
lugo si</w>
lin da</w>
kit chen</w>
juven ile</w>
is ra
gener ic</w>
f old</w>
di ane</w>
d ating</w>
continu ed</w>
care ers</w>
bro ther
berg man</w>
ba ker</w>
ati vity</w>
all o</w>
win ter</w>
wi ves</w>
vi er</w>
val ley</w>
tri o</w>
ta il</w>
t ical</w>
stric tly</w>
p iti
or ders</w>
off ended</w>
near by</w>
ly n</w>
la b</w>
iron ically</w>
ic ing</w>
i reland</w>
hyp no
gu it
gent le</w>
fra g
dev ast
de ce
d ys
crit ic</w>
convers ations</w>
conspir acy</w>
bur ned</w>
ari an</w>
ag ents</w>
ad ams</w>
yel low</w>
wa x</w>
un watchable</w>
tra ined</w>
t ones</w>
su ited</w>
sta ying</w>
soun ding</w>
sole ly</w>
sent ence</w>
room s</w>
roo t</w>
ren dition</w>
proce ed
por no</w>
over acting</w>
not ably</w>
mil d</w>
meta ph
l ic
improv ed</w>
gre y</w>
g lu
g le
f es</w>
explic it</w>
el im
dig ital</w>
cha in</w>
car ter</w>
ado le
su itable</w>
sc h</w>
sat an</w>
sa dness</w>
s nu
re solution</w>
puppe t</w>
pro je
ner v
manhatt an</w>
ma fi
lar ger</w>
j ol
j i</w>
inst itu
in son</w>
im plausible</w>
disjo inted</w>
dialo gues</w>
cry st
clo sed</w>
citi zen</w>
ch ant</w>
c up</w>
blu es</w>
blea k</w>
angel a</w>
wa it
un pleasant</w>
tra f
thear ted</w>
stron ger</w>
st il
s ill
recomm end
recogn ition</w>
pu shing</w>
produc ing</w>
per su
p in</w>
over rated</w>
n em
mus li
mov ements</w>
m ons</w>
lim its</w>
liber al</w>
landscap e</w>
ing en
i ra
ham let</w>
gar den</w>
f lies</w>
exagger ated</w>
enorm ous</w>
davi es</w>
com pos
cla ire</w>
bra ins</w>
al a</w>
after wards</w>
achiev ement</w>
wannab e</w>
transl ation</w>
ti re</w>
terri fying</w>
scen e
rom an</w>
rob bery</w>
prison ers</w>
mix ture</w>
mi stress</w>
mari o</w>
j uni
involv ement</w>
invol ve</w>
ici ent</w>
gro w
f ice</w>
convinc ingly</w>
cof fee</w>
cha in
can ada</w>
ca tho
bud dies</w>
bl ur
be an</w>
att ached</w>
wall ace</w>
vir gin</w>
tic s</w>
thou se</w>
subtle ty</w>
ssi ons</w>
sk in
sadi stic</w>
recogni zed</w>
r ant</w>
plan ning</w>
pla gue</w>
person a</w>
not es</w>
m p</w>
luc as</w>
im person
further more</w>
elabor ate</w>
ed the</w>
coo k</w>
com plain</w>
ch ess</w>
cellu loid</w>
car ol</w>
boo t</w>
bene ath</w>
z ak
we i
vir us</w>
spi ke</w>
rel ent
per ver
par ti
p it</w>
mo on
lyric s</w>
lo aded</w>
le d
gre g
gi b
g and
explo sion</w>
est ate</w>
e tly</w>
discu ssion</w>
dedic ated</w>
cr ack</w>
car ds</w>
arrog ant</w>
all time</w>
200 4</w>
w alls</w>
vo y
ta g</w>
survi val</w>
simil arly</w>
scre ams</w>
remar k
r he
popul ation</w>
plan ned</w>
op en
mi sunder
mat ched</w>
mar gare
k ish</w>
inventi ve</w>
gro t
de pression</w>
cor n
by e</w>
benef it</w>
ad mi
194 0s</w>
vi se</w>
tra in
tr acy</w>
spiel berg</w>
sar ca
sal v
sacri fic
ri stic</w>
prison er</w>
pa st
n ings</w>
lo t
lo ads</w>
fran co</w>
explo red</w>
exc lu
descri bes</w>
blan k</w>
antic s</w>
ad el
tw in</w>
tun es</w>
to dd</w>
thro at</w>
susp ici
speci fically</w>
speci es</w>
sp ell</w>
skel et
sav age</w>
sa il
s ence</w>
presen ting</w>
por tion</w>
phra se</w>
opini ons</w>
murder ous</w>
mar tha</w>
m eri
life style</w>
le ys</w>
kur t</w>
inst ant</w>
gra y</w>
gang sters</w>
en cing</w>
ell i</w>
e di
diam ond</w>
dama ge</w>
carri e</w>
aw ful
at ingly</w>
ach ers</w>
a i</w>
9 11</w>
wi se
wi d
w is
ver sus</w>
tra de
stre ep</w>
sta irs</w>
simp listic</w>
scen es
re moved</w>
ra i</w>
proceed ings</w>
pre dec
polit ically</w>
poe try</w>
ow en</w>
over looked</w>
ja zz</w>
is s
gl ori
formu la
for ds</w>
every ones</w>
er t</w>
ei ther
du o</w>
distur bed</w>
d ele
class ical</w>
catho lic</w>
ap ri
war m
val ent
ther ing</w>
su mm
stran gers</w>
spir ited</w>
slo ppy</w>
self ish</w>
sco res</w>
re pul
re aches</w>
prom ises</w>
princi pal</w>
perfor mer</w>
p i</w>
nic ole</w>
neighb or</w>
mu seum</w>
mo tives</w>
mista ken</w>
meth od</w>
main tain</w>
lo yal</w>
is s</w>
heav y
fe tched</w>
en coura
ea se</w>
depic ts</w>
defin ed</w>
de pressed</w>
c ement</w>
bit ter
youn g
w ound</w>
tra il</w>
tarantin o</w>
ruth less</w>
rec y
re present</w>
over done</w>
neg le
lif ting</w>
